<pad>	0
<unk>	0
<s>	0
</s>	0
<0x00>	0
<0x01>	0
<0x02>	0
<0x03>	0
<0x04>	0
<0x05>	0
<0x06>	0
<0x07>	0
<0x08>	0
<0x09>	0
<0x0A>	0
<0x0B>	0
<0x0C>	0
<0x0D>	0
<0x0E>	0
<0x0F>	0
<0x10>	0
<0x11>	0
<0x12>	0
<0x13>	0
<0x14>	0
<0x15>	0
<0x16>	0
<0x17>	0
<0x18>	0
<0x19>	0
<0x1A>	0
<0x1B>	0
<0x1C>	0
<0x1D>	0
<0x1E>	0
<0x1F>	0
<0x20>	0
<0x21>	0
<0x22>	0
<0x23>	0
<0x24>	0
<0x25>	0
<0x26>	0
<0x27>	0
<0x28>	0
<0x29>	0
<0x2A>	0
<0x2B>	0
<0x2C>	0
<0x2D>	0
<0x2E>	0
<0x2F>	0
<0x30>	0
<0x31>	0
<0x32>	0
<0x33>	0
<0x34>	0
<0x35>	0
<0x36>	0
<0x37>	0
<0x38>	0
<0x39>	0
<0x3A>	0
<0x3B>	0
<0x3C>	0
<0x3D>	0
<0x3E>	0
<0x3F>	0
<0x40>	0
<0x41>	0
<0x42>	0
<0x43>	0
<0x44>	0
<0x45>	0
<0x46>	0
<0x47>	0
<0x48>	0
<0x49>	0
<0x4A>	0
<0x4B>	0
<0x4C>	0
<0x4D>	0
<0x4E>	0
<0x4F>	0
<0x50>	0
<0x51>	0
<0x52>	0
<0x53>	0
<0x54>	0
<0x55>	0
<0x56>	0
<0x57>	0
<0x58>	0
<0x59>	0
<0x5A>	0
<0x5B>	0
<0x5C>	0
<0x5D>	0
<0x5E>	0
<0x5F>	0
<0x60>	0
<0x61>	0
<0x62>	0
<0x63>	0
<0x64>	0
<0x65>	0
<0x66>	0
<0x67>	0
<0x68>	0
<0x69>	0
<0x6A>	0
<0x6B>	0
<0x6C>	0
<0x6D>	0
<0x6E>	0
<0x6F>	0
<0x70>	0
<0x71>	0
<0x72>	0
<0x73>	0
<0x74>	0
<0x75>	0
<0x76>	0
<0x77>	0
<0x78>	0
<0x79>	0
<0x7A>	0
<0x7B>	0
<0x7C>	0
<0x7D>	0
<0x7E>	0
<0x7F>	0
<0x80>	0
<0x81>	0
<0x82>	0
<0x83>	0
<0x84>	0
<0x85>	0
<0x86>	0
<0x87>	0
<0x88>	0
<0x89>	0
<0x8A>	0
<0x8B>	0
<0x8C>	0
<0x8D>	0
<0x8E>	0
<0x8F>	0
<0x90>	0
<0x91>	0
<0x92>	0
<0x93>	0
<0x94>	0
<0x95>	0
<0x96>	0
<0x97>	0
<0x98>	0
<0x99>	0
<0x9A>	0
<0x9B>	0
<0x9C>	0
<0x9D>	0
<0x9E>	0
<0x9F>	0
<0xA0>	0
<0xA1>	0
<0xA2>	0
<0xA3>	0
<0xA4>	0
<0xA5>	0
<0xA6>	0
<0xA7>	0
<0xA8>	0
<0xA9>	0
<0xAA>	0
<0xAB>	0
<0xAC>	0
<0xAD>	0
<0xAE>	0
<0xAF>	0
<0xB0>	0
<0xB1>	0
<0xB2>	0
<0xB3>	0
<0xB4>	0
<0xB5>	0
<0xB6>	0
<0xB7>	0
<0xB8>	0
<0xB9>	0
<0xBA>	0
<0xBB>	0
<0xBC>	0
<0xBD>	0
<0xBE>	0
<0xBF>	0
<0xC0>	0
<0xC1>	0
<0xC2>	0
<0xC3>	0
<0xC4>	0
<0xC5>	0
<0xC6>	0
<0xC7>	0
<0xC8>	0
<0xC9>	0
<0xCA>	0
<0xCB>	0
<0xCC>	0
<0xCD>	0
<0xCE>	0
<0xCF>	0
<0xD0>	0
<0xD1>	0
<0xD2>	0
<0xD3>	0
<0xD4>	0
<0xD5>	0
<0xD6>	0
<0xD7>	0
<0xD8>	0
<0xD9>	0
<0xDA>	0
<0xDB>	0
<0xDC>	0
<0xDD>	0
<0xDE>	0
<0xDF>	0
<0xE0>	0
<0xE1>	0
<0xE2>	0
<0xE3>	0
<0xE4>	0
<0xE5>	0
<0xE6>	0
<0xE7>	0
<0xE8>	0
<0xE9>	0
<0xEA>	0
<0xEB>	0
<0xEC>	0
<0xED>	0
<0xEE>	0
<0xEF>	0
<0xF0>	0
<0xF1>	0
<0xF2>	0
<0xF3>	0
<0xF4>	0
<0xF5>	0
<0xF6>	0
<0xF7>	0
<0xF8>	0
<0xF9>	0
<0xFA>	0
<0xFB>	0
<0xFC>	0
<0xFD>	0
<0xFE>	0
<0xFF>	0
して	-0
った	-1
って	-2
した	-3
から	-4
こと	-5
する	-6
ない	-7
いる	-8
ある	-9
され	-10
いた	-11
..	-12
ので	-13
とい	-14
その	-15
ます	-16
よう	-17
には	-18
という	-19
いて	-20
では	-21
にな	-22
この	-23
です	-24
られ	-25
それ	-26
として	-27
である	-28
あり	-29
20	-30
もの	-31
ている	-32
19	-33
ました	-34
など	-35
によ	-36
された	-37
でも	-38
ため	-39
なく	-40
かった	-41
しい	-42
これ	-43
とな	-44
あった	-45
ると	-46
」「	-47
している	-48
でき	-49
まで	-50
また	-51
さん	-52
....	-53
っている	-54
ことが	-55
います	-56
そう	-57
リー	-58
にも	-59
れた	-60
んだ	-61
んで	-62
、「	-63
と思	-64
。「	-65
ール	-66
れば	-67
ット	-68
しか	-69
ック	-70
れる	-71
しま	-72
イン	-73
スト	-74
のは	-75
ラン	-76
れて	-77
日本	-78
ように	-79
んな	-80
なかった	-81
ませ	-82
ター	-83
だけ	-84
つて	-85
ような	-86
かな	-87
ことを	-88
より	-89
ころ	-90
なら	-91
につ	-92
とも	-93
がある	-94
ート	-95
おり	-96
自分	-97
けて	-98
だった	-99
10	-100
つた	-101
の中	-102
人の	-103
のです	-104
される	-105
にお	-106
なが	-107
めて	-108
えて	-109
ング	-110
を見	-111
ろう	-112
える	-113
ません	-114
どう	-115
ける	-116
的な	-117
ながら	-118
かり	-119
ょう	-120
とは	-121
ント	-122
していた	-123
――	-124
ュー	-125
されて	-126
ところ	-127
であった	-128
たち	-129
ティ	-130
しく	-131
ード	-132
たい	-133
ショ	-134
について	-135
との	-136
させ	-137
ディ	-138
っていた	-139
年に	-140
00	-141
ことは	-142
ーム	-143
なる	-144
に対	-145
られた	-146
によって	-147
のか	-148
しょう	-149
されている	-150
られる	-151
っと	-152
しかし	-153
けた	-154
18	-155
場合	-156
......	-157
できる	-158
ライ	-159
になる	-160
的に	-161
200	-162
いい	-163
のだ	-164
であり	-165
私は	-166
ース	-167
めた	-168
になった	-169
もので	-170
えた	-171
ほど	-172
なん	-173
大き	-174
そして	-175
いう	-176
のが	-177
リア	-178
ップ	-179
ために	-180
の一	-181
201	-182
こう	-183
もう	-184
取り	-185
の方	-186
多く	-187
と言	-188
まり	-189
を受	-190
ンの	-191
なり	-192
を持	-193
すると	-194
日に	-195
により	-196
める	-197
バー	-198
年の	-199
そこ	-200
ファ	-201
、19	-202
ンド	-203
になって	-204
への	-205
じゃ	-206
プロ	-207
となった	-208
による	-209
大学	-210
きた	-211
いつ	-212
とか	-213
になり	-214
われ	-215
ちゃ	-216
かに	-217
12	-218
感じ	-219
とき	-220
ことで	-221
の人	-222
ですが	-223
ことも	-224
ション	-225
時間	-226
考え	-227
での	-228
ーク	-229
があり	-230
いない	-231
)、	-232
いました	-233
に入	-234
いく	-235
世界	-236
タイ	-237
▁(	-238
同じ	-239
出来	-240
ジャ	-241
コン	-242
りの	-243
さい	-244
必要	-245
において	-246
もし	-247
・・	-248
レー	-249
ござ	-250
学校	-251
時代	-252
であ	-253
リカ	-254
人が	-255
11	-256
らない	-257
人は	-258
アル	-259
日の	-260
を行	-261
フォ	-262
スの	-263
上げ	-264
にして	-265
ければ	-266
問題	-267
うち	-268
はない	-269
のである	-270
ても	-271
可能	-272
よく	-273
チャ	-274
ージ	-275
。」	-276
これは	-277
のお	-278
そんな	-279
来た	-280
られて	-281
とする	-282
にか	-283
者の	-284
ロー	-285
とした	-286
などの	-287
のですが	-288
それは	-289
シャ	-290
けど	-291
わけ	-292
サイ	-293
フィ	-294
ステ	-295
。19	-296
まだ	-297
時に	-298
ただ	-299
に出	-300
らの	-301
キャ	-302
自分の	-303
となる	-304
彼は	-305
さら	-306
現在	-307
アメ	-308
作品	-309
スタ	-310
後の	-311
らい	-312
ばかり	-313
の上	-314
シー	-315
後に	-316
をして	-317
カー	-318
らず	-319
使用	-320
ラー	-321
れど	-322
たり	-323
のに	-324
前に	-325
せて	-326
...	-327
んです	-328
サー	-329
ではない	-330
に関	-331
のように	-332
ここ	-333
アメリカ	-334
er	-335
べて	-336
東京	-337
っても	-338
▁19	-339
にある	-340
▁と	-341
つの	-342
)。	-343
マン	-344
します	-345
15	-346
研究	-347
をも	-348
したが	-349
をつ	-350
しない	-351
リン	-352
▁「	-353
▁この	-354
なければ	-355
まま	-356
それを	-357
れない	-358
りに	-359
えば	-360
関係	-361
でしょう	-362
彼女	-363
だが	-364
しまう	-365
多い	-366
以上	-367
当時	-368
シュ	-369
ゐる	-370
生活	-371
その後	-372
ブル	-373
やう	-374
べき	-375
事を	-376
ことに	-377
あの	-378
人間	-379
私の	-380
引き	-381
存在	-382
のような	-383
思い	-384
少し	-385
からの	-386
ベル	-387
17	-388
けれど	-389
ジョ	-390
らしい	-391
われた	-392
家の	-393
in	-394
われる	-395
だろう	-396
しました	-397
を出	-398
に行	-399
となり	-400
ープ	-401
16	-402
しまった	-403
社会	-404
利用	-405
自身	-406
なた	-407
会社	-408
国の	-409
リス	-410
映画	-411
いろ	-412
に対して	-413
on	-414
と思います	-415
気が	-416
アン	-417
他の	-418
意味	-419
と思う	-420
のみ	-421
のも	-422
ますが	-423
30	-424
ランド	-425
くる	-426
活動	-427
間に	-428
いで	-429
だから	-430
があ	-431
にと	-432
大きな	-433
をか	-434
いった	-435
クラ	-436
があった	-437
くな	-438
言葉	-439
いか	-440
ンは	-441
女性	-442
▁-	-443
ルの	-444
放送	-445
子供	-446
さらに	-447
なお	-448
an	-449
結果	-450
持ち	-451
かの	-452
だと	-453
ッド	-454
月に	-455
しても	-456
が出	-457
られている	-458
ちゃん	-459
んど	-460
ありません	-461
ジェ	-462
せる	-463
すぐ	-464
がない	-465
ひと	-466
の大	-467
あなた	-468
▁その	-469
フェ	-470
レン	-471
者が	-472
ございます	-473
することが	-474
ものの	-475
アイ	-476
およ	-477
フラン	-478
もある	-479
わた	-480
レビ	-481
のを	-482
合わ	-483
いは	-484
昭和	-485
前の	-486
ウェ	-487
高い	-488
れている	-489
なか	-490
セン	-491
子の	-492
パー	-493
ナー	-494
者は	-495
よりも	-496
なので	-497
情報	-498
いに	-499
地域	-500
いている	-501
と呼	-502
と云	-503
レス	-504
彼の	-505
常に	-506
14	-507
それが	-508
、『	-509
レイ	-510
まる	-511
すること	-512
状態	-513
こんな	-514
ちょ	-515
良い	-516
部分	-517
といった	-518
しており	-519
スター	-520
ニュー	-521
選手	-522
からは	-523
▁お	-524
ダー	-525
のある	-526
立ち	-527
ならない	-528
13	-529
かる	-530
さま	-531
場所	-532
ではなく	-533
オー	-534
させる	-535
出した	-536
でした	-537
エン	-538
まった	-539
ッチ	-540
をする	-541
力を	-542
ヴィ	-543
コー	-544
にあ	-545
いや	-546
or	-547
をした	-548
じて	-549
行く	-550
における	-551
ちら	-552
アー	-553
といふ	-554
最初	-555
とう	-556
を開	-557
としては	-558
通り	-559
特に	-560
メン	-561
テレビ	-562
影響	-563
バイ	-564
ともに	-565
どこ	-566
しよう	-567
中に	-568
まして	-569
立て	-570
間の	-571
一方	-572
きました	-573
好き	-574
参加	-575
実際	-576
目の	-577
および	-578
多くの	-579
みたい	-580
21	-581
ものは	-582
ものを	-583
きて	-584
できない	-585
先生	-586
わり	-587
さんの	-588
シア	-589
en	-590
一般	-591
サン	-592
ねえ	-593
日本の	-594
されていた	-595
発表	-596
かない	-597
を得	-598
ルト	-599
仕事	-600
を使	-601
22	-602
に見	-603
ヴァ	-604
効果	-605
らう	-606
主義	-607
たる	-608
くれ	-609
ものが	-610
25	-611
せた	-612
やす	-613
の中で	-614
相手	-615
ar	-616
やり	-617
起こ	-618
だけで	-619
何か	-620
来て	-621
に対する	-622
あります	-623
方が	-624
▁20	-625
人を	-626
じゃない	-627
くだ	-628
ウィ	-629
来る	-630
・・・	-631
ーン	-632
ほう	-633
事業	-634
われて	-635
やって	-636
しの	-637
ニー	-638
子は	-639
23	-640
については	-641
教育	-642
くり	-643
音楽	-644
▁また	-645
をお	-646
マイ	-647
結婚	-648
のため	-649
上が	-650
ニア	-651
らく	-652
さんは	-653
落ち	-654
はい	-655
よい	-656
ほと	-657
さう	-658
今日	-659
の手	-660
番組	-661
クト	-662
そういう	-663
を作	-664
チェ	-665
付け	-666
チーム	-667
のために	-668
事件	-669
24	-670
。」「	-671
一人	-672
部の	-673
方法	-674
年代	-675
しば	-676
まい	-677
コミ	-678
っぱ	-679
ブラ	-680
▁201	-681
理由	-682
自然	-683
に向	-684
開発	-685
を受け	-686
年には	-687
グラ	-688
記録	-689
イツ	-690
ックス	-691
』(	-692
ゲーム	-693
しながら	-694
などを	-695
考えて	-696
物の	-697
共に	-698
にて	-699
これを	-700
▁S	-701
なくな	-702
しゃ	-703
々の	-704
までの	-705
あげ	-706
代表	-707
それから	-708
まず	-709
キー	-710
んでいる	-711
試合	-712
計画	-713
ネット	-714
すべて	-715
at	-716
すれば	-717
委員	-718
内容	-719
最も	-720
たら	-721
あまり	-722
わず	-723
ていた	-724
オン	-725
50	-726
ものである	-727
人に	-728
ほとんど	-729
の下	-730
部屋	-731
本当	-732
中の	-733
はじ	-734
かけ	-735
っかり	-736
以降	-737
」(	-738
ドラ	-739
いの	-740
かなり	-741
プリ	-742
けれども	-743
以外	-744
を通	-745
初めて	-746
政府	-747
ちょっと	-748
ゐた	-749
一つ	-750
スク	-751
マー	-752
の名	-753
ということ	-754
はその	-755
さんが	-756
もない	-757
私が	-758
物を	-759
文化	-760
わる	-761
食べ	-762
ウン	-763
グル	-764
くらい	-765
ぞれ	-766
したい	-767
明治	-768
生ま	-769
スは	-770
ゆる	-771
度の	-772
たく	-773
それぞれ	-774
戦争	-775
ドイツ	-776
自由	-777
過ぎ	-778
はず	-779
リスト	-780
スを	-781
が行	-782
上の	-783
えない	-784
っており	-785
述べ	-786
体の	-787
歴史	-788
それに	-789
同年	-790
説明	-791
ルを	-792
方の	-793
と呼ば	-794
の中に	-795
どんな	-796
としての	-797
ポー	-798
▁しかし	-799
つか	-800
もなく	-801
メント	-802
非常に	-803
新しい	-804
けない	-805
al	-806
ことから	-807
手を	-808
んと	-809
と同	-810
監督	-811
状況	-812
なんて	-813
調査	-814
ったり	-815
たちは	-816
にとって	-817
すぎ	-818
入れ	-819
かい	-820
なし	-821
経済	-822
▁今	-823
いき	-824
りを	-825
カル	-826
第一	-827
が見	-828
。――	-829
リーズ	-830
サイト	-831
ほか	-832
組み	-833
ることが	-834
内の	-835
らは	-836
スペ	-837
技術	-838
、2	-839
デー	-840
政治	-841
es	-842
に関する	-843
しさ	-844
小さ	-845
をと	-846
したり	-847
事が	-848
重要	-849
ブロ	-850
出て	-851
女の	-852
商品	-853
くと	-854
中心	-855
さえ	-856
評価	-857
、20	-858
年から	-859
になっている	-860
写真	-861
変更	-862
出す	-863
ンを	-864
登場	-865
いま	-866
というのは	-867
シーズ	-868
出して	-869
可能性	-870
となっている	-871
居る	-872
早く	-873
かも	-874
こそ	-875
フト	-876
と同じ	-877
平成	-878
そこで	-879
一緒	-880
はり	-881
国際	-882
クロ	-883
会の	-884
ですね	-885
ずに	-886
ようになった	-887
なんだ	-888
都市	-889
かもし	-890
世紀	-891
子を	-892
または	-893
切り	-894
込み	-895
時の	-896
子が	-897
しろ	-898
トル	-899
発生	-900
楽し	-901
全く	-902
経験	-903
▁C	-904
あるいは	-905
一度	-906
っています	-907
000	-908
紹介	-909
かわ	-910
位置	-911
ビュー	-912
月の	-913
出し	-914
きり	-915
シン	-916
れません	-917
企業	-918
目的	-919
自動	-920
であろう	-921
を取	-922
数の	-923
イギ	-924
あら	-925
下の	-926
am	-927
くれる	-928
ごと	-929
it	-930
場合は	-931
環境	-932
、200	-933
ダイ	-934
かく	-935
サービ	-936
白い	-937
ic	-938
たちの	-939
ラク	-940
機能	-941
鉄道	-942
太郎	-943
なくて	-944
システ	-945
大きく	-946
及び	-947
▁200	-948
かって	-949
地の	-950
ナル	-951
シリーズ	-952
リング	-953
いが	-954
受け	-955
購入	-956
を与	-957
40	-958
ンが	-959
比較	-960
を見て	-961
システム	-962
のこと	-963
中で	-964
つも	-965
100	-966
のない	-967
つけ	-968
事実	-969
お前	-970
発売	-971
販売	-972
書き	-973
エル	-974
打ち	-975
ましたが	-976
運動	-977
を持つ	-978
イス	-979
担当	-980
様に	-981
科学	-982
時期	-983
ーション	-984
決定	-985
ください	-986
うちに	-987
いていた	-988
あと	-989
設置	-990
文学	-991
かと	-992
管理	-993
地方	-994
は一	-995
あれ	-996
イト	-997
確認	-998
中国	-999
契約	-1000
ネル	-1001
入り	-1002
やが	-1003
とともに	-1004
にした	-1005
▁A	-1006
アルバ	-1007
行った	-1008
にする	-1009
ーの	-1010
デル	-1011
を含	-1012
攻撃	-1013
られない	-1014
やはり	-1015
ジュ	-1016
開催	-1017
学生	-1018
〳〵	-1019
を行う	-1020
等の	-1021
言う	-1022
知ら	-1023
しは	-1024
強い	-1025
トラ	-1026
のではない	-1027
と見	-1028
タン	-1029
しが	-1030
ります	-1031
機関	-1032
、1	-1033
80	-1034
フランス	-1035
を取り	-1036
リーグ	-1037
イル	-1038
生き	-1039
々な	-1040
大阪	-1041
▁M	-1042
に移	-1043
へと	-1044
かれ	-1045
かれた	-1046
無い	-1047
モン	-1048
理解	-1049
建設	-1050
悪い	-1051
新聞	-1052
60	-1053
はこの	-1054
が一	-1055
プラ	-1056
いだ	-1057
st	-1058
ども	-1059
基本	-1060
みんな	-1061
若い	-1062
があります	-1063
きの	-1064
的には	-1065
近く	-1066
あって	-1067
するため	-1068
スが	-1069
っち	-1070
になると	-1071
と共に	-1072
全て	-1073
ロッ	-1074
!」	-1075
の間	-1076
表現	-1077
発見	-1078
パン	-1079
ること	-1080
当初	-1081
もち	-1082
)」	-1083
時は	-1084
の家	-1085
マル	-1086
いを	-1087
りで	-1088
後は	-1089
最終	-1090
男性	-1091
テン	-1092
とても	-1093
としても	-1094
僕は	-1095
手に	-1096
思う	-1097
とし	-1098
相談	-1099
よね	-1100
気の	-1101
までは	-1102
ヴェ	-1103
軍の	-1104
来の	-1105
、3	-1106
と思った	-1107
変化	-1108
二十	-1109
小説	-1110
▁『	-1111
199	-1112
ルー	-1113
施設	-1114
卒業	-1115
労働	-1116
大会	-1117
者を	-1118
組織	-1119
じた	-1120
ですから	-1121
専門	-1122
アップ	-1123
申し	-1124
えている	-1125
27	-1126
アルバム	-1127
事は	-1128
しています	-1129
われている	-1130
話を	-1131
ケット	-1132
提供	-1133
などが	-1134
he	-1135
させた	-1136
ハイ	-1137
江戸	-1138
現在の	-1139
げて	-1140
いつも	-1141
ザー	-1142
んでいた	-1143
▁P	-1144
やる	-1145
アニ	-1146
?」	-1147
28	-1148
当時の	-1149
グループ	-1150
これらの	-1151
普通	-1152
くれた	-1153
できた	-1154
ユー	-1155
ずれ	-1156
26	-1157
ハン	-1158
▁T	-1159
までも	-1160
に乗	-1161
どうか	-1162
le	-1163
選挙	-1164
デザ	-1165
再び	-1166
ジオ	-1167
すす	-1168
完全	-1169
意識	-1170
主張	-1171
もあり	-1172
かなか	-1173
ビー	-1174
構成	-1175
つつ	-1176
キング	-1177
としている	-1178
原因	-1179
を受けた	-1180
りと	-1181
程度	-1182
プレ	-1183
優勝	-1184
生産	-1185
精神	-1186
。『	-1187
制作	-1188
成功	-1189
気持ち	-1190
アク	-1191
場の	-1192
と考え	-1193
であるが	-1194
タル	-1195
からない	-1196
ところで	-1197
用の	-1198
トリ	-1199
体を	-1200
り返	-1201
内に	-1202
?」「	-1203
年間	-1204
ッシュ	-1205
を務	-1206
わった	-1207
テー	-1208
なかつた	-1209
まって	-1210
れていた	-1211
やうな	-1212
長い	-1213
報告	-1214
ドル	-1215
は大	-1216
者に	-1217
人も	-1218
ソン	-1219
国民	-1220
やら	-1221
それで	-1222
シング	-1223
十分	-1224
高く	-1225
▁の	-1226
目を	-1227
見た	-1228
ロン	-1229
たちが	-1230
個人	-1231
実施	-1232
最高	-1233
29	-1234
上に	-1235
続き	-1236
してお	-1237
デン	-1238
金を	-1239
年は	-1240
そうな	-1241
、201	-1242
々に	-1243
ジア	-1244
バス	-1245
メンバー	-1246
の前	-1247
いろいろ	-1248
70	-1249
議員	-1250
出来る	-1251
中央	-1252
性を	-1253
採用	-1254
最大	-1255
かし	-1256
ろん	-1257
予定	-1258
かつて	-1259
みに	-1260
バル	-1261
りました	-1262
に就	-1263
出身	-1264
つき	-1265
ジャー	-1266
色の	-1267
ってる	-1268
ールド	-1269
これが	-1270
獲得	-1271
センター	-1272
ウス	-1273
リフォ	-1274
新た	-1275
々と	-1276
イギリス	-1277
の上に	-1278
文字	-1279
。20	-1280
げた	-1281
一緒に	-1282
高校	-1283
果た	-1284
はお	-1285
価格	-1286
を知	-1287
設定	-1288
越し	-1289
違い	-1290
と言う	-1291
なければならない	-1292
事務	-1293
気を	-1294
。......	-1295
特徴	-1296
わない	-1297
対象	-1298
かけて	-1299
やうに	-1300
せず	-1301
明ら	-1302
彼女は	-1303
データ	-1304
大な	-1305
されており	-1306
。200	-1307
ダン	-1308
行動	-1309
▁I	-1310
公開	-1311
家族	-1312
条件	-1313
込んで	-1314
させて	-1315
山の	-1316
わって	-1317
こういう	-1318
本当に	-1319
▁B	-1320
ou	-1321
対応	-1322
したら	-1323
設立	-1324
様の	-1325
ならば	-1326
に対し	-1327
特別	-1328
なかなか	-1329
ジョン	-1330
支援	-1331
とお	-1332
際に	-1333
くて	-1334
上で	-1335
第二	-1336
シーズン	-1337
までに	-1338
次の	-1339
テル	-1340
注意	-1341
▁は	-1342
以前	-1343
を経	-1344
シェ	-1345
カン	-1346
やがて	-1347
例えば	-1348
費用	-1349
判断	-1350
りが	-1351
みた	-1352
最近	-1353
と呼ばれる	-1354
こちら	-1355
ませんで	-1356
まあ	-1357
顔を	-1358
方は	-1359
行き	-1360
イント	-1361
できます	-1362
飛び	-1363
ところが	-1364
意見	-1365
所の	-1366
ニング	-1367
指導	-1368
今回	-1369
時代の	-1370
認め	-1371
を感じ	-1372
そのまま	-1373
is	-1374
たと	-1375
ただし	-1376
様々な	-1377
あた	-1378
そうです	-1379
体が	-1380
ファン	-1381
オリ	-1382
らしく	-1383
博士	-1384
を読	-1385
反対	-1386
スー	-1387
かね	-1388
つまり	-1389
ライン	-1390
まと	-1391
でございます	-1392
撮影	-1393
re	-1394
見て	-1395
なぜ	-1396
に立	-1397
行って	-1398
病院	-1399
ワー	-1400
だって	-1401
通常	-1402
期間	-1403
と思って	-1404
デザイン	-1405
小さな	-1406
らし	-1407
いわ	-1408
教授	-1409
ディア	-1410
ピー	-1411
時点	-1412
すべき	-1413
物語	-1414
聞き	-1415
ロシア	-1416
事に	-1417
自分が	-1418
いただ	-1419
クリ	-1420
買取	-1421
終了	-1422
の方が	-1423
自身の	-1424
度は	-1425
時には	-1426
ヨー	-1427
しては	-1428
メージ	-1429
芸術	-1430
すすめ	-1431
あたり	-1432
ガー	-1433
日は	-1434
構造	-1435
代の	-1436
みな	-1437
少なく	-1438
つと	-1439
電話	-1440
ウォ	-1441
屋の	-1442
心を	-1443
もちろん	-1444
かう	-1445
っくり	-1446
近い	-1447
治療	-1448
全国	-1449
メート	-1450
のでは	-1451
一番	-1452
しかも	-1453
やかな	-1454
言い	-1455
げる	-1456
チャン	-1457
。(	-1458
地区	-1459
でない	-1460
のうち	-1461
必ず	-1462
ティー	-1463
ざる	-1464
勝利	-1465
開始	-1466
っしゃ	-1467
la	-1468
アニメ	-1469
規模	-1470
過去	-1471
▁それ	-1472
バン	-1473
つてゐる	-1474
つく	-1475
すが	-1476
ものだ	-1477
エンジ	-1478
いなかった	-1479
▁私は	-1480
ことがある	-1481
地に	-1482
自動車	-1483
になります	-1484
を示	-1485
聞いて	-1486
からも	-1487
英語	-1488
31	-1489
は何	-1490
種類	-1491
展開	-1492
所属	-1493
ムの	-1494
ほどの	-1495
日には	-1496
事故	-1497
実に	-1498
をし	-1499
期の	-1500
京都	-1501
目に	-1502
を用	-1503
ましょう	-1504
万円	-1505
と述べ	-1506
異なる	-1507
市の	-1508
実は	-1509
いずれ	-1510
らが	-1511
期待	-1512
はじめ	-1513
ボー	-1514
▁そして	-1515
定の	-1516
心配	-1517
が必要	-1518
長の	-1519
議会	-1520
違う	-1521
et	-1522
不安	-1523
分の	-1524
以上の	-1525
最初の	-1526
90	-1527
直接	-1528
下さい	-1529
引っ	-1530
本作	-1531
料理	-1532
種の	-1533
ion	-1534
に至	-1535
スコ	-1536
しまい	-1537
みの	-1538
始め	-1539
批判	-1540
でしょうか	-1541
自己	-1542
書いて	-1543
することを	-1544
。201	-1545
同時に	-1546
ro	-1547
を持って	-1548
を受けて	-1549
まえ	-1550
などは	-1551
向け	-1552
独立	-1553
ガン	-1554
セル	-1555
、18	-1556
製造	-1557
ギー	-1558
がお	-1559
流れ	-1560
てて	-1561
航空	-1562
出場	-1563
生の	-1564
警察	-1565
カード	-1566
経営	-1567
km	-1568
責任	-1569
裁判	-1570
決して	-1571
せん	-1572
ッと	-1573
ポイント	-1574
に基	-1575
高等	-1576
人で	-1577
......」	-1578
人と	-1579
▁一	-1580
すで	-1581
価値	-1582
出演	-1583
いたが	-1584
郎は	-1585
コード	-1586
によると	-1587
ッグ	-1588
始めた	-1589
の後	-1590
込む	-1591
el	-1592
力が	-1593
▁L	-1594
となって	-1595
家に	-1596
スカ	-1597
ならぬ	-1598
を求	-1599
やすい	-1600
だけの	-1601
部に	-1602
を目	-1603
思議	-1604
▁F	-1605
手の	-1606
ふう	-1607
簡単	-1608
トン	-1609
物が	-1610
保護	-1611
▁D	-1612
においては	-1613
になりました	-1614
りて	-1615
どの	-1616
ライブ	-1617
買い	-1618
をもって	-1619
すぐに	-1620
たび	-1621
大変	-1622
導入	-1623
日から	-1624
気に	-1625
呼び	-1626
きに	-1627
を一	-1628
』『	-1629
ブリ	-1630
指摘	-1631
道路	-1632
作業	-1633
有名	-1634
含ま	-1635
朝鮮	-1636
町の	-1637
ほぼ	-1638
するために	-1639
しも	-1640
▁)	-1641
支配	-1642
別の	-1643
に加	-1644
いますが	-1645
なのか	-1646
帰って	-1647
タイプ	-1648
少ない	-1649
じる	-1650
完成	-1651
舞台	-1652
タリア	-1653
安全	-1654
部隊	-1655
くなる	-1656
そこに	-1657
天皇	-1658
本の	-1659
などで	-1660
かえ	-1661
登録	-1662
性の	-1663
委員会	-1664
設計	-1665
考える	-1666
メー	-1667
のだが	-1668
不思議	-1669
交通	-1670
ものです	-1671
込んだ	-1672
ch	-1673
ケー	-1674
ポート	-1675
場で	-1676
みると	-1677
っきり	-1678
ぢや	-1679
一の	-1680
とされる	-1681
ールの	-1682
イベ	-1683
っぱり	-1684
運営	-1685
次第	-1686
込ま	-1687
デビュー	-1688
であったが	-1689
合い	-1690
をしている	-1691
兵衛	-1692
側の	-1693
きます	-1694
ときに	-1695
心の	-1696
こともある	-1697
ああ	-1698
下に	-1699
サービス	-1700
プレイ	-1701
イド	-1702
に基づ	-1703
を見た	-1704
限り	-1705
行為	-1706
見る	-1707
の一つ	-1708
を選	-1709
ったが	-1710
があって	-1711
めている	-1712
ほん	-1713
ジャン	-1714
のであ	-1715
毎日	-1716
に分	-1717
ほうが	-1718
おります	-1719
ハー	-1720
運転	-1721
名の	-1722
点を	-1723
対策	-1724
私も	-1725
フレ	-1726
深い	-1727
ったら	-1728
するという	-1729
いたい	-1730
興味	-1731
▁1	-1732
▁大	-1733
今の	-1734
ことができる	-1735
距離	-1736
てる	-1737
はや	-1738
活躍	-1739
飛行	-1740
すでに	-1741
198	-1742
合わせ	-1743
美しい	-1744
押し	-1745
無理	-1746
いても	-1747
バンド	-1748
モデル	-1749
▁これ	-1750
もっと	-1751
45	-1752
面に	-1753
リフォーム	-1754
身を	-1755
土地	-1756
るところ	-1757
を結	-1758
さに	-1759
車両	-1760
▁3	-1761
以来	-1762
の主	-1763
君は	-1764
形で	-1765
ッツ	-1766
いましたが	-1767
れの	-1768
力の	-1769
動き	-1770
表示	-1771
ッカー	-1772
記念	-1773
だったが	-1774
しに	-1775
々は	-1776
ズの	-1777
料金	-1778
ということで	-1779
▁R	-1780
会議	-1781
なんか	-1782
付き	-1783
ぐらい	-1784
所に	-1785
を持ち	-1786
ですか	-1787
インター	-1788
ラス	-1789
ラクター	-1790
を追	-1791
手紙	-1792
ディング	-1793
機会	-1794
パイ	-1795
国家	-1796
かつ	-1797
年度	-1798
ックの	-1799
みて	-1800
収録	-1801
くない	-1802
ソフト	-1803
市民	-1804
が多い	-1805
インド	-1806
▁"	-1807
するが	-1808
でお	-1809
ひとつ	-1810
大臣	-1811
,000	-1812
印象	-1813
のであった	-1814
ゆく	-1815
声を	-1816
ひど	-1817
していたが	-1818
健康	-1819
一つの	-1820
主に	-1821
を果た	-1822
の一部	-1823
om	-1824
ませんでした	-1825
社の	-1826
さが	-1827
川の	-1828
することは	-1829
小さい	-1830
ってお	-1831
ドラマ	-1832
くなった	-1833
わざ	-1834
がい	-1835
知り	-1836
ロッパ	-1837
内で	-1838
路線	-1839
イメージ	-1840
ゅう	-1841
体は	-1842
演奏	-1843
何も	-1844
おう	-1845
ズム	-1846
名前	-1847
にしても	-1848
大きい	-1849
重要な	-1850
イベント	-1851
を使用	-1852
っとも	-1853
ポーツ	-1854
発展	-1855
かれて	-1856
すご	-1857
車の	-1858
しき	-1859
に従	-1860
製作	-1861
を中心	-1862
製品	-1863
制度	-1864
戦闘	-1865
ついて	-1866
指定	-1867
ヨーロッパ	-1868
に戻	-1869
、――	-1870
ごろ	-1871
男の	-1872
ワン	-1873
であると	-1874
女子	-1875
なさ	-1876
、199	-1877
くなって	-1878
公園	-1879
クラブ	-1880
とり	-1881
周辺	-1882
いません	-1883
宇宙	-1884
強く	-1885
危険	-1886
衛門	-1887
彼女の	-1888
▁G	-1889
被害	-1890
▁t	-1891
実現	-1892
業者	-1893
試験	-1894
結局	-1895
▁2	-1896
物は	-1897
月には	-1898
安心	-1899
願い	-1900
海道	-1901
だよ	-1902
えず	-1903
人気	-1904
合衆	-1905
続け	-1906
フリー	-1907
聞いた	-1908
相当	-1909
連続	-1910
/0	-1911
と云う	-1912
チュ	-1913
最後の	-1914
公式	-1915
子に	-1916
障害	-1917
、4	-1918
バラ	-1919
乗り	-1920
ルス	-1921
さんに	-1922
ol	-1923
クリー	-1924
検討	-1925
戦で	-1926
旅行	-1927
いら	-1928
ピア	-1929
ボール	-1930
人間の	-1931
成長	-1932
想像	-1933
ための	-1934
方に	-1935
リリー	-1936
建築	-1937
質問	-1938
マス	-1939
云った	-1940
ac	-1941
氏の	-1942
既に	-1943
銀行	-1944
キャラクター	-1945
ルは	-1946
チョ	-1947
声が	-1948
いって	-1949
なくなった	-1950
リオ	-1951
でもない	-1952
ドレス	-1953
指揮	-1954
雑誌	-1955
よろ	-1956
希望	-1957
▁18	-1958
ジー	-1959
整備	-1960
ですよ	-1961
を引き	-1962
ざま	-1963
きたい	-1964
野球	-1965
スポーツ	-1966
ちに	-1967
メートル	-1968
全体	-1969
ピン	-1970
ミー	-1971
住民	-1972
ですし	-1973
ブログ	-1974
していない	-1975
られていた	-1976
保険	-1977
外国	-1978
ダム	-1979
ありが	-1980
替え	-1981
ビア	-1982
しょ	-1983
▁m	-1984
候補	-1985
かも知	-1986
ヤー	-1987
が出て	-1988
セット	-1989
しみ	-1990
形成	-1991
支持	-1992
面の	-1993
を下	-1994
知識	-1995
かという	-1996
モー	-1997
を発	-1998
海外	-1999
更に	-2000
すな	-2001
場に	-2002
みたいな	-2003
しばらく	-2004
振り	-2005
ねて	-2006
云う	-2007
逃げ	-2008
に参加	-2009
スタン	-2010
交換	-2011
ユニ	-2012
自ら	-2013
が生	-2014
医療	-2015
ものと	-2016
で行	-2017
していく	-2018
に当	-2019
クレ	-2020
数は	-2021
名を	-2022
美術	-2023
ミュー	-2024
どれ	-2025
使い	-2026
ワーク	-2027
それでも	-2028
けば	-2029
のア	-2030
ラム	-2031
であつた	-2032
を行った	-2033
レベル	-2034
が大	-2035
移動	-2036
事の	-2037
少年	-2038
様な	-2039
そも	-2040
以下	-2041
によれば	-2042
売り	-2043
フォー	-2044
一方で	-2045
を抱	-2046
だけでなく	-2047
営業	-2048
書いた	-2049
おか	-2050
がか	-2051
主人	-2052
掛け	-2053
屋根	-2054
ビル	-2055
無料	-2056
知らない	-2057
道を	-2058
企画	-2059
民主	-2060
レース	-2061
いくら	-2062
められた	-2063
統領	-2064
il	-2065
パート	-2066
▁ア	-2067
側に	-2068
いと	-2069
イタリア	-2070
の地	-2071
フル	-2072
当然	-2073
してきた	-2074
キュ	-2075
のでしょう	-2076
みる	-2077
記憶	-2078
形式	-2079
言って	-2080
のだろう	-2081
用い	-2082
増加	-2083
かもしれません	-2084
レク	-2085
を含む	-2086
わかり	-2087
▁が	-2088
言った	-2089
を経て	-2090
たくさん	-2091
法律	-2092
なに	-2093
歳の	-2094
......。	-2095
あん	-2096
共同	-2097
好きな	-2098
ノー	-2099
入って	-2100
しっかり	-2101
方向	-2102
音が	-2103
女は	-2104
されたが	-2105
古い	-2106
ニック	-2107
見ると	-2108
現実	-2109
まるで	-2110
んに	-2111
帝国	-2112
することで	-2113
すと	-2114
準備	-2115
のと	-2116
まく	-2117
などに	-2118
の小	-2119
之助	-2120
ウト	-2121
を生	-2122
認識	-2123
初の	-2124
二人の	-2125
編集	-2126
ing	-2127
▁H	-2128
連合	-2129
ベン	-2130
▁本	-2131
気づ	-2132
キャン	-2133
置いて	-2134
ポン	-2135
りは	-2136
処理	-2137
っぽ	-2138
の外	-2139
を送	-2140
地球	-2141
めに	-2142
を受ける	-2143
実際に	-2144
197	-2145
35	-2146
さを	-2147
」、	-2148
以外の	-2149
がる	-2150
失敗	-2151
ケース	-2152
メラ	-2153
繰り返	-2154
ローマ	-2155
アメリカ合衆	-2156
▁N	-2157
関連	-2158
話し	-2159
線の	-2160
っちゃ	-2161
てた	-2162
世の	-2163
んですけど	-2164
しまいました	-2165
要求	-2166
出来ない	-2167
先に	-2168
とその	-2169
、5	-2170
を描	-2171
父の	-2172
らぬ	-2173
政策	-2174
を見る	-2175
解決	-2176
ついた	-2177
彼が	-2178
島の	-2179
合わせて	-2180
しなかった	-2181
▁W	-2182
漫画	-2183
考えた	-2184
といって	-2185
急に	-2186
.5	-2187
いち	-2188
二人	-2189
にかけて	-2190
いながら	-2191
ed	-2192
こうした	-2193
チャー	-2194
別に	-2195
友達	-2196
どうも	-2197
だし	-2198
決勝	-2199
金の	-2200
方を	-2201
ティング	-2202
ずっと	-2203
かもしれない	-2204
めていた	-2205
平次	-2206
長は	-2207
掲載	-2208
。18	-2209
クス	-2210
海軍	-2211
▁そう	-2212
▁日本	-2213
さて	-2214
ウム	-2215
改善	-2216
と語	-2217
でもある	-2218
選択	-2219
心に	-2220
そろ	-2221
as	-2222
どうして	-2223
トロ	-2224
読み	-2225
考へ	-2226
ストラ	-2227
韓国	-2228
眼を	-2229
^^	-2230
()	-2231
につき	-2232
を開始	-2233
人物	-2234
教会	-2235
要素	-2236
思想	-2237
コメント	-2238
場を	-2239
三十	-2240
勉強	-2241
の本	-2242
維持	-2243
48	-2244
ッフ	-2245
んですが	-2246
しかった	-2247
家は	-2248
なども	-2249
ディー	-2250
様子	-2251
持って	-2252
型の	-2253
性が	-2254
ねば	-2255
元の	-2256
さない	-2257
かす	-2258
手が	-2259
ベース	-2260
段階	-2261
感情	-2262
国内	-2263
に進	-2264
数が	-2265
ファー	-2266
細胞	-2267
搭載	-2268
上げて	-2269
家庭	-2270
拡大	-2271
深く	-2272
欲しい	-2273
つけて	-2274
だな	-2275
提案	-2276
に伴	-2277
足を	-2278
of	-2279
体験	-2280
テーマ	-2281
そのため	-2282
いふ	-2283
夜の	-2284
困難	-2285
すべての	-2286
口を	-2287
ここで	-2288
スマ	-2289
入れて	-2290
見える	-2291
アフ	-2292
メイ	-2293
ちな	-2294
を利用	-2295
挙げ	-2296
共和	-2297
ナン	-2298
投げ	-2299
もと	-2300
旦那	-2301
絶対	-2302
依頼	-2303
カップ	-2304
トレ	-2305
やっぱり	-2306
議論	-2307
スタイ	-2308
に行く	-2309
伝え	-2310
たま	-2311
合う	-2312
政権	-2313
カラ	-2314
っては	-2315
べく	-2316
、、	-2317
明る	-2318
範囲	-2319
の実	-2320
協力	-2321
立つ	-2322
つけた	-2323
産業	-2324
わが	-2325
キン	-2326
というのが	-2327
自分で	-2328
の方へ	-2329
規定	-2330
フラ	-2331
出版	-2332
総合	-2333
観光	-2334
どちら	-2335
に一	-2336
母親	-2337
になっていた	-2338
ちょう	-2339
リリース	-2340
に応	-2341
くなり	-2342
今日は	-2343
のことを	-2344
シングル	-2345
▁E	-2346
選手権	-2347
周囲	-2348
ラジオ	-2349
を買	-2350
生徒	-2351
間違	-2352
どうしても	-2353
わち	-2354
なき	-2355
連絡	-2356
仕事を	-2357
に就任	-2358
形の	-2359
口コミ	-2360
スタッフ	-2361
ものに	-2362
もあった	-2363
ようです	-2364
オープ	-2365
メール	-2366
しかない	-2367
タイム	-2368
だけは	-2369
位を	-2370
すなわち	-2371
じゃないか	-2372
北海道	-2373
コロ	-2374
ならず	-2375
などと	-2376
事情	-2377
しくは	-2378
大統領	-2379
出た	-2380
起き	-2381
196	-2382
ここに	-2383
トップ	-2384
なって	-2385
度も	-2386
装置	-2387
太陽	-2388
が多く	-2389
五郎	-2390
氏は	-2391
そうに	-2392
なった	-2393
これから	-2394
かが	-2395
君の	-2396
トラン	-2397
成立	-2398
にかく	-2399
ふと	-2400
役割	-2401
かれる	-2402
ウンド	-2403
協会	-2404
やく	-2405
大切	-2406
電気	-2407
シャル	-2408
かせ	-2409
コース	-2410
▁」	-2411
部は	-2412
スーパー	-2413
村の	-2414
小学校	-2415
不明	-2416
学の	-2417
であります	-2418
レッ	-2419
ずる	-2420
を探	-2421
木の	-2422
NA	-2423
新たな	-2424
調べ	-2425
かわらず	-2426
必要な	-2427
このような	-2428
位の	-2429
過ご	-2430
自治	-2431
自分は	-2432
に於	-2433
言語	-2434
可愛	-2435
セント	-2436
フロ	-2437
を有	-2438
すら	-2439
ウル	-2440
通信	-2441
見え	-2442
ではありません	-2443
を着	-2444
広く	-2445
いえ	-2446
........	-2447
なくても	-2448
バック	-2449
次郎	-2450
傾向	-2451
基準	-2452
連れて	-2453
ずつ	-2454
はある	-2455
発言	-2456
だという	-2457
してしまう	-2458
、198	-2459
広い	-2460
機械	-2461
のための	-2462
働き	-2463
を除	-2464
制限	-2465
存在する	-2466
名は	-2467
プログラ	-2468
待ち	-2469
ときは	-2470
住宅	-2471
張り	-2472
ミング	-2473
できなかった	-2474
難しい	-2475
確保	-2476
誰も	-2477
具体	-2478
満足	-2479
置き	-2480
映像	-2481
上げた	-2482
学者	-2483
三郎	-2484
アナ	-2485
突き	-2486
かどうか	-2487
地を	-2488
々が	-2489
年まで	-2490
低い	-2491
ちが	-2492
いわゆる	-2493
父親	-2494
トー	-2495
▁――	-2496
ラル	-2497
オリン	-2498
支払	-2499
アジア	-2500
パリ	-2501
プレー	-2502
を超	-2503
業務	-2504
比べ	-2505
ライト	-2506
そうして	-2507
気持	-2508
馬鹿	-2509
」、「	-2510
ことになる	-2511
ヨーク	-2512
de	-2513
ミニ	-2514
近づ	-2515
楽曲	-2516
ミュージ	-2517
us	-2518
軍は	-2519
遊び	-2520
レンジ	-2521
。199	-2522
さまざま	-2523
今は	-2524
ッション	-2525
伝統	-2526
居た	-2527
回の	-2528
突然	-2529
記事	-2530
生まれ	-2531
がり	-2532
を見ると	-2533
子ども	-2534
系の	-2535
かれている	-2536
理論	-2537
おい	-2538
クル	-2539
ロック	-2540
所有	-2541
つい	-2542
法の	-2543
ってきた	-2544
36	-2545
性格	-2546
イング	-2547
大正	-2548
限定	-2549
ませんが	-2550
学部	-2551
僕の	-2552
むしろ	-2553
上げる	-2554
時代に	-2555
くら	-2556
するのは	-2557
式の	-2558
みを	-2559
かを	-2560
かん	-2561
平均	-2562
")	-2563
ッセ	-2564
トゥ	-2565
メーカー	-2566
ブランド	-2567
▁・	-2568
オス	-2569
cm	-2570
▁|	-2571
にあった	-2572
メディア	-2573
現代	-2574
用意	-2575
道の	-2576
面白	-2577
なんです	-2578
化した	-2579
が進	-2580
店舗	-2581
続けて	-2582
作戦	-2583
列車	-2584
廃止	-2585
面白い	-2586
団体	-2587
つもり	-2588
わからない	-2589
を目指	-2590
になつて	-2591
ネス	-2592
33	-2593
行政	-2594
男は	-2595
ot	-2596
ットの	-2597
るが	-2598
デュー	-2599
マーク	-2600
工業	-2601
おれ	-2602
ぶん	-2603
を訪	-2604
弁護	-2605
可能な	-2606
一人の	-2607
に変	-2608
週間	-2609
長く	-2610
55	-2611
きっ	-2612
度が	-2613
ナイ	-2614
生まれた	-2615
を行い	-2616
分野	-2617
タイトル	-2618
工事	-2619
続く	-2620
かけた	-2621
差し	-2622
と言って	-2623
ファイ	-2624
を使って	-2625
だつた	-2626
高等学校	-2627
amp	-2628
を決	-2629
月から	-2630
力は	-2631
思った	-2632
ヴォ	-2633
作曲	-2634
作用	-2635
の話	-2636
チン	-2637
継続	-2638
仲間	-2639
消費	-2640
ページ	-2641
らを	-2642
作り	-2643
州の	-2644
アの	-2645
兄弟	-2646
員の	-2647
えていた	-2648
クの	-2649
士の	-2650
検査	-2651
を手	-2652
編成	-2653
▁ただ	-2654
場合には	-2655
キリスト	-2656
まれた	-2657
メイン	-2658
大戦	-2659
約束	-2660
取引	-2661
活用	-2662
ゴール	-2663
なくなる	-2664
証拠	-2665
丈夫	-2666
のところ	-2667
、(	-2668
したのは	-2669
作家	-2670
らなかった	-2671
面を	-2672
ということは	-2673
ホテル	-2674
民族	-2675
神経	-2676
まったく	-2677
スピ	-2678
ほしい	-2679
ter	-2680
のだから	-2681
お客	-2682
共通	-2683
出された	-2684
記載	-2685
をあ	-2686
飲み	-2687
-0	-2688
を引	-2689
後半	-2690
をう	-2691
ギャ	-2692
止め	-2693
きっと	-2694
ra	-2695
株式	-2696
ri	-2697
二人は	-2698
をや	-2699
夫婦	-2700
▁199	-2701
ワイ	-2702
IN	-2703
44	-2704
エネル	-2705
我が	-2706
リと	-2707
(18	-2708
32	-2709
員が	-2710
図書	-2711
生命	-2712
不足	-2713
宗教	-2714
達は	-2715
破壊	-2716
呼ば	-2717
えられた	-2718
▁でも	-2719
交渉	-2720
スペイン	-2721
なあ	-2722
ow	-2723
わかる	-2724
うえ	-2725
否定	-2726
を立て	-2727
誕生	-2728
連邦	-2729
アラ	-2730
アプリ	-2731
ものであった	-2732
ストー	-2733
つける	-2734
に任	-2735
にもか	-2736
ヒー	-2737
わりに	-2738
バッ	-2739
デオ	-2740
勝ち	-2741
屋敷	-2742
何の	-2743
が開	-2744
クライ	-2745
命令	-2746
輸送	-2747
と思い	-2748
に入り	-2749
ジェクト	-2750
38	-2751
体制	-2752
横浜	-2753
を失	-2754
ギリ	-2755
してる	-2756
75	-2757
動物	-2758
▁O	-2759
を迎	-2760
が始	-2761
プト	-2762
を表	-2763
ようになり	-2764
心が	-2765
.0	-2766
、10	-2767
報道	-2768
づけ	-2769
を進	-2770
ブレ	-2771
ペン	-2772
完全に	-2773
時点で	-2774
プラン	-2775
の日	-2776
分に	-2777
実験	-2778
日本語	-2779
極めて	-2780
どういう	-2781
あらゆる	-2782
復帰	-2783
東京都	-2784
使う	-2785
実行	-2786
を起こ	-2787
アド	-2788
なくなって	-2789
ヶ月	-2790
量の	-2791
のよ	-2792
最後	-2793
メリ	-2794
女が	-2795
引越	-2796
彼らは	-2797
をひ	-2798
を残	-2799
の高	-2800
資料	-2801
を解	-2802
そば	-2803
らん	-2804
社長	-2805
今まで	-2806
が入	-2807
明らかに	-2808
反応	-2809
を通じて	-2810
年齢	-2811
の御	-2812
に着	-2813
スケ	-2814
電車	-2815
水の	-2816
ありますが	-2817
如何	-2818
成績	-2819
and	-2820
だか	-2821
抜け	-2822
ent	-2823
46	-2824
オル	-2825
たない	-2826
当初は	-2827
をた	-2828
時計	-2829
であれば	-2830
CD	-2831
妙な	-2832
ランキング	-2833
することができる	-2834
人口	-2835
コミュ	-2836
テスト	-2837
吉は	-2838
そうだ	-2839
追加	-2840
投稿	-2841
されていない	-2842
37	-2843
カメラ	-2844
声で	-2845
となく	-2846
運用	-2847
ということを	-2848
さは	-2849
ベスト	-2850
▁5	-2851
塗装	-2852
に取り	-2853
ニューヨーク	-2854
何を	-2855
、6	-2856
目標	-2857
革命	-2858
きっかけ	-2859
利益	-2860
者も	-2861
アカ	-2862
盛り	-2863
必要がある	-2864
安定	-2865
評判	-2866
のもと	-2867
くい	-2868
についての	-2869
書く	-2870
容易	-2871
歩いて	-2872
34	-2873
如く	-2874
oo	-2875
イレ	-2876
ピック	-2877
いな	-2878
十二	-2879
ことになった	-2880
教師	-2881
IC	-2882
それも	-2883
たが	-2884
みが	-2885
ごとに	-2886
なかったが	-2887
さと	-2888
身の	-2889
かは	-2890
サイズ	-2891
AN	-2892
▁4	-2893
にもかかわらず	-2894
というような	-2895
頭の	-2896
やつ	-2897
黒い	-2898
初め	-2899
店の	-2900
発表した	-2901
負担	-2902
が発生	-2903
姿を	-2904
の影響	-2905
派遣	-2906
空間	-2907
いけない	-2908
うる	-2909
カナ	-2910
他に	-2911
後も	-2912
っていたが	-2913
ネー	-2914
言葉を	-2915
un	-2916
えます	-2917
ようになる	-2918
の中には	-2919
思います	-2920
信頼	-2921
男が	-2922
西洋	-2923
39	-2924
かで	-2925
キシ	-2926
更新	-2927
結構	-2928
大学の	-2929
を加	-2930
インタ	-2931
にとっては	-2932
吹き	-2933
第三	-2934
をかけて	-2935
向上	-2936
死んだ	-2937
▁これは	-2938
将軍	-2939
調整	-2940
を務めた	-2941
美味	-2942
出る	-2943
司令	-2944
でござ	-2945
したため	-2946
らせ	-2947
田の	-2948
付近	-2949
平和	-2950
されない	-2951
貢献	-2952
かなる	-2953
あなたの	-2954
由来	-2955
ホール	-2956
されると	-2957
ふうに	-2958
感覚	-2959
さまざまな	-2960
分析	-2961
だけど	-2962
集団	-2963
に住	-2964
for	-2965
ツアー	-2966
市場	-2967
練習	-2968
▁あ	-2969
自宅	-2970
達の	-2971
んの	-2972
ギュ	-2973
風に	-2974
温泉	-2975
をつけて	-2976
機の	-2977
ちょうど	-2978
▁0	-2979
できて	-2980
思ひ	-2981
コミュニ	-2982
▁私	-2983
工場	-2984
42	-2985
家が	-2986
現在は	-2987
らに	-2988
頭を	-2989
ことはない	-2990
追い	-2991
と思われる	-2992
わたく	-2993
mm	-2994
レコード	-2995
恐ろ	-2996
話題	-2997
どころ	-2998
してしまった	-2999
ハッ	-3000
配置	-3001
ロンド	-3002
するなど	-3003
エイ	-3004
43	-3005
II	-3006
とを	-3007
水を	-3008
ヘル	-3009
向き	-3010
に帰	-3011
ガラ	-3012
手で	-3013
修理	-3014
逆に	-3015
遠く	-3016
せい	-3017
親分	-3018
なす	-3019
ag	-3020
はあ	-3021
仕方	-3022
禁止	-3023
医師	-3024
積極	-3025
改革	-3026
頃から	-3027
独自	-3028
!!	-3029
行の	-3030
アメリカ合衆国	-3031
名古	-3032
47	-3033
▁中	-3034
売却	-3035
風の	-3036
レーション	-3037
発電	-3038
▁of	-3039
初期	-3040
ゲン	-3041
かしい	-3042
させていた	-3043
これも	-3044
っこ	-3045
のだった	-3046
を持っている	-3047
ションの	-3048
を重	-3049
操作	-3050
答え	-3051
達成	-3052
そらく	-3053
カリ	-3054
多数	-3055
物質	-3056
ものでは	-3057
ではないか	-3058
当たり	-3059
予想	-3060
事も	-3061
すっかり	-3062
もっとも	-3063
間で	-3064
伸び	-3065
現象	-3066
部門	-3067
すこ	-3068
なのに	-3069
▁J	-3070
▁で	-3071
これに	-3072
AR	-3073
福岡	-3074
さんと	-3075
▁その後	-3076
計算	-3077
得る	-3078
ようで	-3079
五十	-3080
したこと	-3081
ねた	-3082
ER	-3083
番号	-3084
ation	-3085
サッカー	-3086
スタート	-3087
だい	-3088
よし	-3089
私に	-3090
ありがとう	-3091
まち	-3092
会長	-3093
最後に	-3094
主人公	-3095
を守	-3096
注文	-3097
良く	-3098
青年	-3099
のち	-3100
が増	-3101
プル	-3102
の問題	-3103
せう	-3104
案内	-3105
続ける	-3106
全部	-3107
地震	-3108
相場	-3109
つてゐた	-3110
の場合	-3111
エネルギー	-3112
の長	-3113
りゃ	-3114
オリジ	-3115
到着	-3116
権利	-3117
軍事	-3118
こうして	-3119
ばかりで	-3120
がって	-3121
たった	-3122
広島	-3123
こっち	-3124
風呂	-3125
いらっしゃ	-3126
ぐる	-3127
頭に	-3128
エット	-3129
▁小	-3130
恋愛	-3131
死去	-3132
田は	-3133
雰囲	-3134
立って	-3135
からである	-3136
建て	-3137
投資	-3138
統一	-3139
500	-3140
に近い	-3141
を記録	-3142
と思いますが	-3143
サル	-3144
子供の	-3145
することも	-3146
合併	-3147
比較的	-3148
なくなり	-3149
陸軍	-3150
▁そんな	-3151
ミン	-3152
事で	-3153
家を	-3154
なもの	-3155
秘密	-3156
運行	-3157
多かった	-3158
まれ	-3159
それぞれの	-3160
プロジェクト	-3161
しを	-3162
詳細	-3163
ケン	-3164
しばしば	-3165
たちに	-3166
だけが	-3167
FC	-3168
さあ	-3169
さすが	-3170
引越し	-3171
AT	-3172
の花	-3173
シル	-3174
能力	-3175
体に	-3176
とにかく	-3177
左右	-3178
続いて	-3179
笑い	-3180
を指	-3181
米国	-3182
▁前	-3183
暗い	-3184
つかの	-3185
に出て	-3186
をはじめ	-3187
と称	-3188
強化	-3189
日が	-3190
競技	-3191
ちゃんと	-3192
スキ	-3193
病気	-3194
、196	-3195
たとえば	-3196
踏み	-3197
その他	-3198
変わ	-3199
かして	-3200
41	-3201
ビジ	-3202
の子	-3203
オフ	-3204
スに	-3205
あるが	-3206
行われた	-3207
であることを	-3208
らす	-3209
画像	-3210
巻き	-3211
の世界	-3212
カラー	-3213
さんも	-3214
デジ	-3215
入れた	-3216
あんな	-3217
なさい	-3218
のかな	-3219
こち	-3220
じめ	-3221
空港	-3222
例の	-3223
スキー	-3224
程度の	-3225
ては	-3226
ようと	-3227
の中から	-3228
名が	-3229
標準	-3230
についても	-3231
オール	-3232
プライ	-3233
保存	-3234
改正	-3235
概念	-3236
入れる	-3237
に選	-3238
人生	-3239
予算	-3240
んだから	-3241
プロデュー	-3242
PC	-3243
とが	-3244
その時	-3245
降り	-3246
息子	-3247
正式	-3248
あなたは	-3249
に転	-3250
置く	-3251
表記	-3252
ぶり	-3253
記述	-3254
課題	-3255
資格	-3256
前から	-3257
をしていた	-3258
をは	-3259
パラ	-3260
ニュ	-3261
中には	-3262
忘れ	-3263
立場	-3264
階級	-3265
地下	-3266
ピュー	-3267
しら	-3268
サラ	-3269
ワールド	-3270
によっては	-3271
オープン	-3272
形態	-3273
▁彼は	-3274
さる	-3275
に通	-3276
を使う	-3277
都合	-3278
の中の	-3279
やや	-3280
態度	-3281
此の	-3282
りする	-3283
へて	-3284
者として	-3285
沖縄	-3286
の方は	-3287
さっ	-3288
ターの	-3289
ワード	-3290
ことができ	-3291
ダル	-3292
半分	-3293
組合	-3294
今日の	-3295
死ぬ	-3296
背景	-3297
カイ	-3298
株式会社	-3299
シャン	-3300
アフリカ	-3301
ゴル	-3302
心理	-3303
参考	-3304
、197	-3305
基礎	-3306
チー	-3307
知られる	-3308
を変	-3309
俳優	-3310
借り	-3311
死亡	-3312
ができる	-3313
ステージ	-3314
かなかった	-3315
自身が	-3316
......」「	-3317
アウト	-3318
相違	-3319
探偵	-3320
母の	-3321
るのは	-3322
首相	-3323
を殺	-3324
に入った	-3325
ロード	-3326
においても	-3327
ぼく	-3328
党の	-3329
は無	-3330
文書	-3331
アリ	-3332
気分	-3333
泣き	-3334
あつた	-3335
これまで	-3336
アメリカの	-3337
朝の	-3338
モノ	-3339
ートの	-3340
つづ	-3341
を図	-3342
事務所	-3343
イー	-3344
全ての	-3345
艦隊	-3346
高速	-3347
の色	-3348
目が	-3349
集中	-3350
してゐる	-3351
一部	-3352
そうで	-3353
俺は	-3354
名古屋	-3355
成分	-3356
がその	-3357
証明	-3358
▁[	-3359
トイレ	-3360
時間を	-3361
チェック	-3362
パス	-3363
ダウン	-3364
ニュース	-3365
ミュ	-3366
減少	-3367
装備	-3368
。198	-3369
49	-3370
ig	-3371
歩き	-3372
立派	-3373
の内	-3374
であって	-3375
58	-3376
ランダ	-3377
うまく	-3378
一日	-3379
ズは	-3380
信じ	-3381
次世界	-3382
農業	-3383
領域	-3384
よりは	-3385
の戦	-3386
聞く	-3387
っております	-3388
からだ	-3389
▁>	-3390
どうした	-3391
きれ	-3392
ソー	-3393
イエ	-3394
外の	-3395
テク	-3396
、7	-3397
にいる	-3398
を出して	-3399
あわ	-3400
解釈	-3401
途中	-3402
をかけ	-3403
ようになって	-3404
の意	-3405
オブ	-3406
彼らの	-3407
材料	-3408
BS	-3409
性質	-3410
ON	-3411
こともあり	-3412
回復	-3413
ごとく	-3414
日常	-3415
正直	-3416
首を	-3417
やった	-3418
のではないか	-3419
まし	-3420
図書館	-3421
抵抗	-3422
ルド	-3423
停止	-3424
ひとり	-3425
次第に	-3426
名称	-3427
に対応	-3428
▁【	-3429
に関しては	-3430
を占	-3431
特殊	-3432
おすすめ	-3433
将来	-3434
続けた	-3435
批評	-3436
物に	-3437
だと思	-3438
複数の	-3439
許可	-3440
せない	-3441
クリス	-3442
教えて	-3443
たしか	-3444
劇場	-3445
あれば	-3446
に出場	-3447
シャツ	-3448
ST	-3449
グレ	-3450
とは思	-3451
ニコ	-3452
▁V	-3453
んだよ	-3454
リティ	-3455
捨て	-3456
日本人	-3457
其の	-3458
次に	-3459
正確	-3460
苦労	-3461
中学校	-3462
と一緒に	-3463
が行われた	-3464
疑問	-3465
だけに	-3466
原作	-3467
少女	-3468
を受賞	-3469
セス	-3470
を担当	-3471
大事	-3472
ものではない	-3473
が残	-3474
上記	-3475
わたしは	-3476
感染	-3477
方も	-3478
普段	-3479
点は	-3480
台湾	-3481
県の	-3482
と云ふ	-3483
と述べている	-3484
派の	-3485
で見	-3486
そんなに	-3487
多少	-3488
ゆえ	-3489
われわれ	-3490
▁なお	-3491
もしくは	-3492
キロ	-3493
になつた	-3494
、8	-3495
ールは	-3496
神の	-3497
よいよ	-3498
んでも	-3499
56	-3500
してみ	-3501
ましては	-3502
▁何	-3503
を獲得	-3504
フィル	-3505
▁という	-3506
クー	-3507
友人	-3508
リーの	-3509
性能	-3510
だったので	-3511
ものか	-3512
▁新	-3513
元年	-3514
連載	-3515
デイ	-3516
法人	-3517
手段	-3518
二つ	-3519
――」	-3520
の間に	-3521
投票	-3522
流行	-3523
の前に	-3524
頃は	-3525
ントン	-3526
発行	-3527
いっ	-3528
地で	-3529
に入って	-3530
次世界大戦	-3531
ではなかった	-3532
制御	-3533
そこへ	-3534
ましい	-3535
二階	-3536
直ぐ	-3537
と感じ	-3538
にいた	-3539
作成	-3540
分け	-3541
その他の	-3542
単に	-3543
間は	-3544
がいる	-3545
私立	-3546
際には	-3547
▁U	-3548
症状	-3549
をつけ	-3550
切って	-3551
整理	-3552
以降は	-3553
ad	-3554
ヘン	-3555
電子	-3556
に属	-3557
ラの	-3558
始める	-3559
スタジオ	-3560
素晴	-3561
防衛	-3562
にならない	-3563
固定	-3564
ものも	-3565
59	-3566
先の	-3567
サポート	-3568
ふる	-3569
推進	-3570
複雑	-3571
しまいます	-3572
▁マ	-3573
以て	-3574
送り	-3575
二つの	-3576
57	-3577
ww	-3578
ボン	-3579
収入	-3580
姿勢	-3581
寄せ	-3582
所で	-3583
残念	-3584
エンジン	-3585
かも知れない	-3586
の三	-3587
公演	-3588
外壁	-3589
られます	-3590
事態	-3591
まさ	-3592
位に	-3593
切れ	-3594
地元	-3595
したと	-3596
っていう	-3597
でしたが	-3598
なこと	-3599
ur	-3600
挨拶	-3601
自分を	-3602
共産	-3603
引退	-3604
条約	-3605
法を	-3606
かかる	-3607
交流	-3608
太平	-3609
比べて	-3610
われていた	-3611
が無	-3612
処分	-3613
学習	-3614
中は	-3615
神社	-3616
を持った	-3617
していて	-3618
の水	-3619
広告	-3620
に入る	-3621
確かに	-3622
定期	-3623
を中心に	-3624
出会	-3625
感謝	-3626
点で	-3627
ロール	-3628
開催された	-3629
に残	-3630
ピアノ	-3631
os	-3632
きは	-3633
父は	-3634
(19	-3635
ちや	-3636
だらう	-3637
付けて	-3638
したという	-3639
をご	-3640
又は	-3641
移籍	-3642
ことが多い	-3643
▁6	-3644
ガス	-3645
おく	-3646
一時	-3647
年も	-3648
んだけど	-3649
まっている	-3650
させていただ	-3651
▁三	-3652
たって	-3653
勤務	-3654
綺麗	-3655
頑張	-3656
忘れて	-3657
プログラム	-3658
関東	-3659
といい	-3660
▁第	-3661
▁それは	-3662
インターネット	-3663
義務	-3664
以上に	-3665
ところに	-3666
が悪	-3667
もら	-3668
ve	-3669
弁護士	-3670
これで	-3671
よかった	-3672
するための	-3673
金額	-3674
がこの	-3675
もん	-3676
赤い	-3677
▁198	-3678
の山	-3679
の結果	-3680
ウェー	-3681
取って	-3682
新たに	-3683
の女	-3684
安い	-3685
語の	-3686
からず	-3687
異なり	-3688
HK	-3689
統合	-3690
エア	-3691
近代	-3692
ヒット	-3693
最初に	-3694
方面	-3695
者である	-3696
いたします	-3697
▁s	-3698
思い出	-3699
最大の	-3700
コンピュー	-3701
インタビュー	-3702
ポリ	-3703
国立	-3704
いずれも	-3705
生きて	-3706
参照	-3707
帰り	-3708
のでした	-3709
するように	-3710
を保	-3711
有効	-3712
訓練	-3713
ええ	-3714
した後	-3715
生物	-3716
を読む	-3717
嬉しい	-3718
取締	-3719
だの	-3720
口の	-3721
道具	-3722
今度は	-3723
しまって	-3724
54	-3725
が高	-3726
つま	-3727
リズム	-3728
ホル	-3729
宣言	-3730
シャー	-3731
予約	-3732
内閣	-3733
貴族	-3734
知っている	-3735
供給	-3736
1,	-3737
イヤ	-3738
チュー	-3739
52	-3740
がな	-3741
午後	-3742
復活	-3743
ub	-3744
定義	-3745
あろう	-3746
えられる	-3747
外に	-3748
趣味	-3749
を作る	-3750
してくれる	-3751
或る	-3752
かつた	-3753
グリ	-3754
方式	-3755
為に	-3756
が起こ	-3757
出来た	-3758
有名な	-3759
しましょう	-3760
助け	-3761
しているが	-3762
犯罪	-3763
時々	-3764
会社の	-3765
BC	-3766
足り	-3767
ものであり	-3768
情報を	-3769
のまま	-3770
といえば	-3771
im	-3772
線を	-3773
出身の	-3774
右衛門	-3775
に改	-3776
楽しみ	-3777
人民	-3778
ようやく	-3779
」。	-3780
るに	-3781
文章	-3782
51	-3783
と考えて	-3784
終わった	-3785
▁を	-3786
様が	-3787
かなりの	-3788
それらの	-3789
めの	-3790
主要	-3791
んですよ	-3792
ショップ	-3793
のま	-3794
披露	-3795
富士	-3796
海岸	-3797
しなければ	-3798
MA	-3799
千葉	-3800
設け	-3801
適用	-3802
あげて	-3803
簡単に	-3804
理想	-3805
はっきり	-3806
似た	-3807
両親	-3808
等は	-3809
芝居	-3810
されています	-3811
系統	-3812
不可	-3813
世界の	-3814
にこ	-3815
の出	-3816
九州	-3817
所は	-3818
視聴	-3819
だね	-3820
ヒト	-3821
初代	-3822
FA	-3823
えられ	-3824
目は	-3825
者と	-3826
時間が	-3827
って来た	-3828
▁b	-3829
ガル	-3830
二三	-3831
向う	-3832
ますと	-3833
ことである	-3834
わけではない	-3835
財産	-3836
頃の	-3837
やっと	-3838
同じく	-3839
してくれ	-3840
そこから	-3841
一体	-3842
信仰	-3843
正しい	-3844
ラスト	-3845
アンド	-3846
思って	-3847
ような気が	-3848
のほう	-3849
バラン	-3850
▁それから	-3851
植物	-3852
えると	-3853
話が	-3854
ドゥ	-3855
OS	-3856
ケーション	-3857
論文	-3858
ユダ	-3859
解説	-3860
が高い	-3861
はもう	-3862
発売された	-3863
対立	-3864
スティ	-3865
りながら	-3866
がった	-3867
ゼン	-3868
世代	-3869
議院	-3870
そのような	-3871
答えた	-3872
接続	-3873
にまで	-3874
の中心	-3875
戦の	-3876
きち	-3877
しております	-3878
IS	-3879
車を	-3880
ソ連	-3881
かける	-3882
かた	-3883
何処	-3884
育毛	-3885
を通して	-3886
豊かな	-3887
られており	-3888
るように	-3889
の顔	-3890
シーン	-3891
▁K	-3892
魅力	-3893
私には	-3894
へ向	-3895
▁p	-3896
演出	-3897
以下の	-3898
競馬	-3899
ほかに	-3900
フィリ	-3901
ためには	-3902
毎年	-3903
ec	-3904
はまだ	-3905
明らか	-3906
表情	-3907
観測	-3908
リーン	-3909
、9	-3910
の音	-3911
人々	-3912
リック	-3913
世話	-3914
楽しい	-3915
を出す	-3916
に関して	-3917
へは	-3918
聞こ	-3919
ないと	-3920
um	-3921
団の	-3922
化粧	-3923
業界	-3924
すぎる	-3925
リスの	-3926
活動を	-3927
会員	-3928
展示	-3929
度に	-3930
▁10	-3931
メル	-3932
ビデオ	-3933
のかもし	-3934
しましたが	-3935
を離	-3936
対戦	-3937
きょう	-3938
求め	-3939
JR	-3940
id	-3941
いけ	-3942
金が	-3943
んだが	-3944
好い	-3945
すごく	-3946
りして	-3947
付けた	-3948
共和国	-3949
かず	-3950
の先	-3951
リーは	-3952
心持	-3953
気で	-3954
私を	-3955
なんで	-3956
一部の	-3957
が現	-3958
ir	-3959
地は	-3960
挑戦	-3961
テム	-3962
の国	-3963
幸福	-3964
大丈夫	-3965
53	-3966
エレ	-3967
ひどく	-3968
と言った	-3969
があれば	-3970
なのです	-3971
を与える	-3972
がいい	-3973
にし	-3974
化学	-3975
配信	-3976
と同時に	-3977
場面	-3978
。2	-3979
ットは	-3980
創設	-3981
数を	-3982
結び	-3983
苦し	-3984
効率	-3985
焼き	-3986
の人が	-3987
逮捕	-3988
の下に	-3989
今後	-3990
品の	-3991
発表された	-3992
ムー	-3993
するに	-3994
遺伝	-3995
終わり	-3996
様は	-3997
ポジ	-3998
ごく	-3999
だと思う	-4000
ばかりの	-4001
していると	-4002
明確	-4003
公共	-4004
君が	-4005
身体	-4006
ターン	-4007
付ける	-4008
がつ	-4009
の見	-4010
んだろう	-4011
皇帝	-4012
フォン	-4013
区別	-4014
哲学	-4015
幕府	-4016
普及	-4017
看護	-4018
に至る	-4019
おそらく	-4020
してもら	-4021
著作	-4022
が存在	-4023
だんだ	-4024
コール	-4025
生涯	-4026
的で	-4027
神戸	-4028
財政	-4029
ゴン	-4030
設備	-4031
金融	-4032
良かった	-4033
期に	-4034
ボル	-4035
コスト	-4036
日まで	-4037
ケル	-4038
単純	-4039
子と	-4040
作品の	-4041
四十	-4042
書の	-4043
目で	-4044
しません	-4045
ユーザー	-4046
全然	-4047
室の	-4048
ay	-4049
に変更	-4050
非常	-4051
武蔵	-4052
後ろ	-4053
連れ	-4054
野菜	-4055
類の	-4056
世間	-4057
努力	-4058
持つ	-4059
走り	-4060
リスク	-4061
ユダヤ	-4062
引っ越し	-4063
th	-4064
の木	-4065
作品を	-4066
同盟	-4067
患者	-4068
も見	-4069
んが	-4070
駆け	-4071
当て	-4072
然し	-4073
メッセ	-4074
やか	-4075
ケア	-4076
気味	-4077
あなたが	-4078
("	-4079
してから	-4080
いくつかの	-4081
するのが	-4082
勿論	-4083
なるほど	-4084
いろいろな	-4085
コス	-4086
彼を	-4087
頃に	-4088
始めて	-4089
ですよね	-4090
だと思います	-4091
うつ	-4092
書を	-4093
翻訳	-4094
早い	-4095
注目	-4096
ジョージ	-4097
em	-4098
へば	-4099
以後	-4100
をこ	-4101
ながらも	-4102
さし	-4103
ぜひ	-4104
家へ	-4105
の不	-4106
お願い	-4107
もとも	-4108
もまた	-4109
を作り	-4110
▁-▁)	-4111
とはいえ	-4112
云ふ	-4113
夜は	-4114
の新	-4115
らと	-4116
ゴー	-4117
ウェア	-4118
▁先	-4119
うと	-4120
話は	-4121
自信	-4122
▁に	-4123
憲法	-4124
適切	-4125
というか	-4126
遠い	-4127
部長	-4128
かっている	-4129
だした	-4130
商業	-4131
いきなり	-4132
オペ	-4133
バート	-4134
唯一の	-4135
ソロ	-4136
達が	-4137
トラック	-4138
エー	-4139
るか	-4140
ドリ	-4141
命を	-4142
回転	-4143
過程	-4144
少なくとも	-4145
低下	-4146
方針	-4147
面積	-4148
に出演	-4149
合った	-4150
はは	-4151
母は	-4152
NHK	-4153
ウォー	-4154
▁そこで	-4155
デジタル	-4156
といっても	-4157
eb	-4158
浮か	-4159
製の	-4160
なのだ	-4161
ロンドン	-4162
いため	-4163
地域の	-4164
間もなく	-4165
としていた	-4166
現状	-4167
コント	-4168
▁́	-4169
いゝ	-4170
のではなく	-4171
田舎	-4172
考慮	-4173
当時は	-4174
スタイル	-4175
所を	-4176
代わりに	-4177
▁ス	-4178
れぬ	-4179
機構	-4180
日も	-4181
エリア	-4182
上がり	-4183
気になる	-4184
どのような	-4185
いれば	-4186
にその	-4187
りした	-4188
楽器	-4189
來た	-4190
東北	-4191
ブルク	-4192
物理	-4193
。▁――	-4194
にあたる	-4195
ap	-4196
ドライ	-4197
があると	-4198
手術	-4199
拒否	-4200
酒を	-4201
自らの	-4202
1.	-4203
られなかった	-4204
を放	-4205
余り	-4206
口に	-4207
2000	-4208
携帯	-4209
規制	-4210
ことの	-4211
力で	-4212
素材	-4213
働く	-4214
300	-4215
たちを	-4216
存じ	-4217
るべき	-4218
を打	-4219
請求	-4220
っていて	-4221
▁カ	-4222
厳しい	-4223
キリ	-4224
借金	-4225
ネタ	-4226
ヤマ	-4227
職業	-4228
ケーキ	-4229
The	-4230
の一人	-4231
はどう	-4232
▁2017	-4233
授業	-4234
リアル	-4235
知らず	-4236
部を	-4237
ところへ	-4238
やかに	-4239
短い	-4240
優秀	-4241
ということが	-4242
するか	-4243
オリンピック	-4244
理事	-4245
みは	-4246
世に	-4247
扱い	-4248
せずに	-4249
デュ	-4250
児童	-4251
上手	-4252
機に	-4253
氏が	-4254
が付	-4255
を越	-4256
ベルト	-4257
リアム	-4258
ハウ	-4259
の中へ	-4260
相手の	-4261
オリジナル	-4262
ティブ	-4263
本は	-4264
らして	-4265
おお	-4266
前で	-4267
食べる	-4268
職員	-4269
輸入	-4270
なにか	-4271
に伴い	-4272
のもの	-4273
軍が	-4274
グラン	-4275
か月	-4276
割り	-4277
女房	-4278
太平洋	-4279
面倒	-4280
に達	-4281
立った	-4282
ならなかった	-4283
シナ	-4284
だけでも	-4285
ないか	-4286
サイド	-4287
を得た	-4288
いっぱ	-4289
わけです	-4290
継承	-4291
▁c	-4292
朝日	-4293
だれ	-4294
僕が	-4295
取った	-4296
▁the	-4297
ドロ	-4298
に向けて	-4299
博物	-4300
じゃあ	-4301
、"	-4302
髪の	-4303
があるので	-4304
ッジ	-4305
まれて	-4306
ポール	-4307
女性の	-4308
と思っていた	-4309
関西	-4310
ハード	-4311
なくては	-4312
IT	-4313
が発	-4314
の発	-4315
建物	-4316
点が	-4317
っていない	-4318
もあります	-4319
oc	-4320
原則	-4321
戦略	-4322
)・	-4323
然と	-4324
ッキー	-4325
ナム	-4326
せば	-4327
観察	-4328
コーナー	-4329
ネットワーク	-4330
ショー	-4331
ひろ	-4332
当該	-4333
れると	-4334
ヴァン	-4335
左衛門	-4336
改めて	-4337
と思うと	-4338
US	-4339
へ出	-4340
ドン	-4341
長が	-4342
という意味	-4343
承知	-4344
曜日	-4345
ピング	-4346
くに	-4347
明け	-4348
カバー	-4349
が可能	-4350
しつつ	-4351
そうした	-4352
の死	-4353
取締役	-4354
ることができる	-4355
べし	-4356
ジン	-4357
応援	-4358
わけで	-4359
自分に	-4360
。196	-4361
ダイエット	-4362
めると	-4363
の第	-4364
を収	-4365
場合に	-4366
カナダ	-4367
、17	-4368
と申	-4369
率は	-4370
風が	-4371
▁d	-4372
ミス	-4373
メッセージ	-4374
が不	-4375
ミア	-4376
を卒業	-4377
form	-4378
の真	-4379
分かり	-4380
エピ	-4381
喜び	-4382
支那	-4383
登場する	-4384
お母	-4385
強制	-4386
資本	-4387
学校の	-4388
レート	-4389
まつ	-4390
を渡	-4391
天井	-4392
風景	-4393
ちなみに	-4394
王国	-4395
ばれた	-4396
後には	-4397
ざるを得	-4398
不思議な	-4399
なりません	-4400
へ行	-4401
一郎	-4402
トレー	-4403
ストーリー	-4404
ak	-4405
を上	-4406
ハハ	-4407
歳で	-4408
に行った	-4409
ut	-4410
タク	-4411
長崎	-4412
きら	-4413
作の	-4414
得意	-4415
構築	-4416
以前の	-4417
隊の	-4418
が起	-4419
るの	-4420
今回の	-4421
そもそも	-4422
スペース	-4423
値段	-4424
女優	-4425
まない	-4426
だら	-4427
ドア	-4428
に使	-4429
を食	-4430
AS	-4431
二度	-4432
ブラック	-4433
メリット	-4434
したがって	-4435
ビン	-4436
訪問	-4437
あっ	-4438
に違	-4439
クラス	-4440
恐ろしい	-4441
に大	-4442
育て	-4443
くると	-4444
イスラ	-4445
まわ	-4446
語り	-4447
ゆっくり	-4448
を行っている	-4449
2)	-4450
を学	-4451
所が	-4452
くれて	-4453
生活の	-4454
自殺	-4455
作品は	-4456
多くは	-4457
を演	-4458
キリスト教	-4459
再生	-4460
寄り	-4461
々しい	-4462
ベー	-4463
リンク	-4464
平次は	-4465
んじゃない	-4466
が主	-4467
世は	-4468
補助	-4469
知られている	-4470
資金	-4471
村は	-4472
従来の	-4473
普通の	-4474
未だ	-4475
いつか	-4476
められ	-4477
カット	-4478
激しい	-4479
うた	-4480
武器	-4481
につなが	-4482
。197	-4483
ビジネス	-4484
性は	-4485
推定	-4486
ってしまった	-4487
無く	-4488
を集	-4489
欧州	-4490
バリ	-4491
代目	-4492
がん	-4493
海の	-4494
メモ	-4495
是非	-4496
フランスの	-4497
の研究	-4498
を見せ	-4499
ようとする	-4500
落ち着	-4501
いよいよ	-4502
原子	-4503
かした	-4504
それほど	-4505
思わず	-4506
結成	-4507
後から	-4508
を流	-4509
機器	-4510
認定	-4511
▁ID	-4512
いかなる	-4513
イギリスの	-4514
に反	-4515
寺の	-4516
解放	-4517
半ば	-4518
ガイ	-4519
いろんな	-4520
最終的に	-4521
質の	-4522
こんで	-4523
ストン	-4524
。)	-4525
何故	-4526
度を	-4527
金属	-4528
きながら	-4529
沢山	-4530
が変	-4531
玄関	-4532
王の	-4533
かなければ	-4534
未来	-4535
複数	-4536
部が	-4537
とも言	-4538
ふた	-4539
アレ	-4540
家で	-4541
川県	-4542
オランダ	-4543
PS	-4544
マリ	-4545
馬の	-4546
措置	-4547
状態で	-4548
意味する	-4549
そういった	-4550
述の	-4551
一切	-4552
▁もう	-4553
フィン	-4554
ねる	-4555
カタ	-4556
フは	-4557
恐怖	-4558
日記	-4559
即ち	-4560
星の	-4561
とされている	-4562
ホー	-4563
ございません	-4564
リート	-4565
日本では	-4566
うん	-4567
承認	-4568
石の	-4569
なしに	-4570
であらう	-4571
へん	-4572
混乱	-4573
本格	-4574
ッタ	-4575
を奪	-4576
セー	-4577
習慣	-4578
やすく	-4579
何度も	-4580
だったら	-4581
という言葉	-4582
調子	-4583
ほかの	-4584
素晴らしい	-4585
するよう	-4586
アイテム	-4587
がありました	-4588
バレ	-4589
史上	-4590
執筆	-4591
族の	-4592
ばん	-4593
を終	-4594
ハリ	-4595
絵画	-4596
開幕	-4597
イングランド	-4598
イズ	-4599
ぶりに	-4600
一人で	-4601
全体の	-4602
につきましては	-4603
自転	-4604
のであろう	-4605
ミル	-4606
検索	-4607
車が	-4608
しくて	-4609
を果たした	-4610
恐れ	-4611
話の	-4612
高齢	-4613
徹底	-4614
所へ	-4615
わたって	-4616
CM	-4617
栄養	-4618
キャリア	-4619
塁打	-4620
ほんと	-4621
ボード	-4622
▁さらに	-4623
の中でも	-4624
アント	-4625
お父	-4626
を負	-4627
億円	-4628
と一	-4629
ブン	-4630
何う	-4631
学園	-4632
ッカ	-4633
午前	-4634
季節	-4635
納得	-4636
の中では	-4637
クション	-4638
あい	-4639
▁7	-4640
動作	-4641
▁km	-4642
できず	-4643
落ちて	-4644
と同様に	-4645
ウィリアム	-4646
と名	-4647
の姿	-4648
――」「	-4649
考えると	-4650
のさ	-4651
のなか	-4652
-1	-4653
テイ	-4654
を採用	-4655
するような	-4656
印刷	-4657
方で	-4658
od	-4659
まじ	-4660
売る	-4661
本来	-4662
を示す	-4663
ナス	-4664
瞬間	-4665
負け	-4666
積極的に	-4667
指示	-4668
」▁「	-4669
可能性がある	-4670
ula	-4671
を実施	-4672
意外	-4673
曲を	-4674
コンビ	-4675
紀元	-4676
末に	-4677
死に	-4678
すぎて	-4679
VD	-4680
レオ	-4681
:0	-4682
▁○	-4683
スリ	-4684
端に	-4685
(15	-4686
の人間	-4687
クター	-4688
合わせた	-4689
ありました	-4690
ールズ	-4691
判決	-4692
どのように	-4693
連携	-4694
置いた	-4695
身に	-4696
レギュ	-4697
コル	-4698
刊行	-4699
延長	-4700
からね	-4701
するもの	-4702
されました	-4703
民間	-4704
のであるが	-4705
分類	-4706
大陸	-4707
たず	-4708
大学院	-4709
に行って	-4710
任務	-4711
軍を	-4712
さず	-4713
兵士	-4714
規則	-4715
伝説	-4716
▁17	-4717
歌詞	-4718
シティ	-4719
レスト	-4720
多数の	-4721
中止	-4722
師の	-4723
離れた	-4724
ってもら	-4725
OK	-4726
流の	-4727
ver	-4728
ルート	-4729
かえって	-4730
することに	-4731
車は	-4732
キャラ	-4733
部分は	-4734
側は	-4735
ind	-4736
シュー	-4737
もお	-4738
抜き	-4739
したもの	-4740
しめ	-4741
パソ	-4742
便利	-4743
浴び	-4744
聞か	-4745
つぶ	-4746
テロ	-4747
ノル	-4748
線が	-4749
が出る	-4750
点から	-4751
▁2018	-4752
中を	-4753
権を	-4754
ついに	-4755
フォード	-4756
と思っている	-4757
AC	-4758
なぁ	-4759
▁8	-4760
福島	-4761
結論	-4762
リード	-4763
なぞ	-4764
然として	-4765
真っ	-4766
脚本	-4767
はじめて	-4768
op	-4769
ツィ	-4770
十五	-4771
犠牲	-4772
せよ	-4773
がなく	-4774
の方に	-4775
ティスト	-4776
等を	-4777
ひどい	-4778
こんなに	-4779
特定の	-4780
主の	-4781
まさに	-4782
らせて	-4783
エリ	-4784
いかにも	-4785
とに	-4786
夫の	-4787
専用	-4788
確立	-4789
の意味	-4790
ようとした	-4791
kg	-4792
ザン	-4793
というものは	-4794
一杯	-4795
台の	-4796
もはや	-4797
云って	-4798
と述べた	-4799
コンピュータ	-4800
入った	-4801
感じた	-4802
ul	-4803
むと	-4804
ロス	-4805
化し	-4806
参戦	-4807
市長	-4808
互いに	-4809
オーストラ	-4810
となっていた	-4811
ia	-4812
神奈	-4813
へ行く	-4814
来ると	-4815
しくない	-4816
空気	-4817
ミュージック	-4818
夏の	-4819
殆ど	-4820
に過ぎ	-4821
げに	-4822
まん	-4823
ニャ	-4824
パル	-4825
をかけた	-4826
▁2016	-4827
りたい	-4828
を提供	-4829
心は	-4830
スイ	-4831
貿易	-4832
ブレー	-4833
リュー	-4834
トリック	-4835
へも	-4836
意図	-4837
歩く	-4838
、12	-4839
つても	-4840
が行われ	-4841
おも	-4842
開業	-4843
博物館	-4844
時から	-4845
しようと	-4846
に対しては	-4847
▁こ	-4848
微笑	-4849
昔の	-4850
ID	-4851
名誉	-4852
山は	-4853
マンション	-4854
が下	-4855
ナの	-4856
結合	-4857
と言い	-4858
実際には	-4859
いたり	-4860
ハウス	-4861
プロデューサー	-4862
優先	-4863
共有	-4864
これら	-4865
ウェイ	-4866
死んで	-4867
相手に	-4868
なっている	-4869
形状	-4870
特定	-4871
保証	-4872
帰る	-4873
わずか	-4874
オーストラリア	-4875
)3	-4876
ノン	-4877
合格	-4878
小屋	-4879
しや	-4880
ギター	-4881
が分	-4882
丁寧	-4883
口から	-4884
戦では	-4885
どんなに	-4886
主演	-4887
描写	-4888
相互	-4889
と呼ぶ	-4890
ってしまう	-4891
丁度	-4892
回答	-4893
だろうか	-4894
の生	-4895
徳川	-4896
フの	-4897
大人	-4898
想定	-4899
象徴	-4900
生活を	-4901
昇格	-4902
換え	-4903
競争	-4904
ワイト	-4905
TV	-4906
古代	-4907
申請	-4908
てもら	-4909
ブルー	-4910
があるが	-4911
も知	-4912
年前	-4913
というもの	-4914
ありませんか	-4915
法は	-4916
ゲスト	-4917
を出した	-4918
であっても	-4919
美容	-4920
の名前	-4921
先生の	-4922
判明	-4923
婦人	-4924
郵便	-4925
。3	-4926
ささ	-4927
クリア	-4928
化された	-4929
nd	-4930
取得	-4931
およそ	-4932
いきたい	-4933
放送された	-4934
さの	-4935
に陥	-4936
防止	-4937
となると	-4938
福祉	-4939
解散	-4940
パーク	-4941
拠点	-4942
レット	-4943
あいだ	-4944
偶然	-4945
暫く	-4946
気な	-4947
に上	-4948
崩壊	-4949
登板	-4950
テキ	-4951
再開	-4952
地上	-4953
めぐ	-4954
積み	-4955
わから	-4956
レッド	-4957
先生は	-4958
乾燥	-4959
把握	-4960
覚え	-4961
コーチ	-4962
ところを	-4963
賞を受賞	-4964
録音	-4965
99	-4966
ソード	-4967
それまで	-4968
軌道	-4969
に乗り	-4970
先発	-4971
みました	-4972
。1	-4973
王座	-4974
記者	-4975
ナイト	-4976
時間の	-4977
途中で	-4978
▁2019	-4979
formula	-4980
鎌倉	-4981
ることは	-4982
のみならず	-4983
は不	-4984
れを	-4985
刺激	-4986
水が	-4987
バイト	-4988
切った	-4989
を求める	-4990
用いられる	-4991
の上で	-4992
何でも	-4993
OR	-4994
一生	-4995
仕様	-4996
弱い	-4997
愛知	-4998
捜査	-4999
爆発	-5000
静かに	-5001
ですので	-5002
長官	-5003
(16	-5004
知らぬ	-5005
のう	-5006
百姓	-5007
量は	-5008
されること	-5009
改良	-5010
観客	-5011
ニン	-5012
飛ば	-5013
わたし	-5014
始まり	-5015
徐々に	-5016
に沿	-5017
サプリ	-5018
掛けて	-5019
その結果	-5020
社は	-5021
道徳	-5022
おや	-5023
お金	-5024
届け	-5025
バイク	-5026
帰国	-5027
によく	-5028
▁197	-5029
手な	-5030
表面	-5031
豊富	-5032
ブラン	-5033
ないで	-5034
を発表	-5035
ゼル	-5036
こちらの	-5037
けん	-5038
ようにして	-5039
びに	-5040
ワク	-5041
さんを	-5042
をもたら	-5043
しなければならない	-5044
も含	-5045
保育	-5046
から見	-5047
AM	-5048
ゲル	-5049
日付	-5050
くまで	-5051
されていたが	-5052
単位	-5053
無し	-5054
ルール	-5055
マッチ	-5056
さすがに	-5057
ともかく	-5058
ブロック	-5059
に渡	-5060
振り返	-5061
規模な	-5062
64	-5063
ツイ	-5064
地が	-5065
LE	-5066
を得て	-5067
種類の	-5068
スラ	-5069
スル	-5070
ダメ	-5071
ママ	-5072
依存	-5073
受賞	-5074
要請	-5075
そのうち	-5076
奈良	-5077
煙草	-5078
通販	-5079
きましたが	-5080
一寸	-5081
起用	-5082
ほんとう	-5083
最低	-5084
運命	-5085
防御	-5086
まとめ	-5087
くらいの	-5088
ホワイト	-5089
かもしれませんが	-5090
ぜん	-5091
差別	-5092
量が	-5093
需要	-5094
』、『	-5095
2010	-5096
たの	-5097
充実	-5098
首都	-5099
どうぞ	-5100
ウント	-5101
エスト	-5102
休み	-5103
信用	-5104
募集	-5105
スマホ	-5106
モード	-5107
何とか	-5108
私たちは	-5109
ウッド	-5110
初期の	-5111
生まれる	-5112
へる	-5113
チラ	-5114
画面	-5115
食品	-5116
ダイヤ	-5117
割合	-5118
幸せ	-5119
フェン	-5120
根拠	-5121
つてゐ	-5122
山口	-5123
ティア	-5124
第二次世界大戦	-5125
を提	-5126
狭い	-5127
金剛	-5128
だとか	-5129
とおり	-5130
化する	-5131
だけでは	-5132
うて	-5133
の光	-5134
騒ぎ	-5135
改造	-5136
どんど	-5137
このため	-5138
かげ	-5139
診断	-5140
実際の	-5141
るような	-5142
レギュラー	-5143
ツェ	-5144
圧倒	-5145
異常	-5146
ができ	-5147
立派な	-5148
ときには	-5149
学問	-5150
るという	-5151
を取得	-5152
チェン	-5153
なの	-5154
に会	-5155
他にも	-5156
覚えて	-5157
チャンピ	-5158
(1	-5159
ゆう	-5160
鈴木	-5161
作られた	-5162
含まれる	-5163
と思いました	-5164
は見	-5165
関係を	-5166
ロボ	-5167
一年	-5168
音を	-5169
(17	-5170
おらず	-5171
と話	-5172
ッサ	-5173
娘の	-5174
示す	-5175
苦しい	-5176
タイミング	-5177
前後	-5178
)4	-5179
数字	-5180
機を	-5181
者で	-5182
作った	-5183
本塁打	-5184
わせ	-5185
栽培	-5186
植民	-5187
合って	-5188
しますが	-5189
になってしまう	-5190
食事	-5191
お前は	-5192
やろう	-5193
これにより	-5194
ッキ	-5195
感動	-5196
そこには	-5197
ジル	-5198
長期	-5199
キッチ	-5200
過去の	-5201
を与えた	-5202
となっており	-5203
シート	-5204
ドイツの	-5205
を始め	-5206
師団	-5207
ことです	-5208
のではないでしょうか	-5209
65	-5210
座敷	-5211
扱う	-5212
掃除	-5213
最新	-5214
加入	-5215
武士	-5216
決め	-5217
院の	-5218
レビュー	-5219
余裕	-5220
従来	-5221
もその	-5222
太郎は	-5223
AP	-5224
RO	-5225
▁ご	-5226
南部	-5227
皮膚	-5228
見えた	-5229
を挙	-5230
同様	-5231
ないので	-5232
人である	-5233
ルイ	-5234
曲の	-5235
パワー	-5236
されます	-5237
修正	-5238
覚悟	-5239
マク	-5240
成果	-5241
なのですが	-5242
わなかった	-5243
散歩	-5244
現役	-5245
と結婚	-5246
じられた	-5247
信号	-5248
悩み	-5249
きちんと	-5250
を踏	-5251
人形	-5252
務省	-5253
撤退	-5254
男子	-5255
すごい	-5256
ないし	-5257
とうとう	-5258
さも	-5259
れず	-5260
離婚	-5261
プラス	-5262
通りの	-5263
れに	-5264
国に	-5265
現場	-5266
▁St	-5267
同様に	-5268
ログ	-5269
昨日	-5270
父が	-5271
じっと	-5272
今回は	-5273
伸ば	-5274
▁12	-5275
さわ	-5276
所在	-5277
ワイン	-5278
まっ	-5279
られると	-5280
ペル	-5281
教え	-5282
日を	-5283
あれは	-5284
だんだん	-5285
の二	-5286
医学	-5287
まずは	-5288
人々の	-5289
いただけ	-5290
アイドル	-5291
当選	-5292
活性	-5293
▁ある	-5294
にあり	-5295
しようとする	-5296
系列	-5297
の人は	-5298
テーブル	-5299
トラブル	-5300
マラ	-5301
中継	-5302
社員	-5303
連盟	-5304
震災	-5305
アーティスト	-5306
さへ	-5307
ミネ	-5308
事例	-5309
兵庫	-5310
分離	-5311
DVD	-5312
民主党	-5313
づく	-5314
吸収	-5315
呼吸	-5316
独自の	-5317
コーヒー	-5318
ie	-5319
満た	-5320
せられた	-5321
もともと	-5322
68	-5323
をふ	-5324
合計	-5325
したので	-5326
区間	-5327
点の	-5328
人から	-5329
▁高	-5330
きが	-5331
せっ	-5332
観念	-5333
アカデ	-5334
マリア	-5335
続いた	-5336
▁エ	-5337
なかに	-5338
ませぬ	-5339
育毛剤	-5340
会場	-5341
問題を	-5342
であるという	-5343
川は	-5344
市街	-5345
ときの	-5346
黙って	-5347
ッケ	-5348
パク	-5349
前提	-5350
化の	-5351
感が	-5352
競走	-5353
静岡	-5354
コンサ	-5355
通りに	-5356
迷惑	-5357
信じて	-5358
上は	-5359
彼女が	-5360
的にも	-5361
上昇	-5362
人や	-5363
知った	-5364
はなかった	-5365
NS	-5366
どろ	-5367
古く	-5368
おまえ	-5369
98	-5370
べる	-5371
をの	-5372
ワシ	-5373
局の	-5374
演技	-5375
はなく	-5376
ファミ	-5377
年より	-5378
するので	-5379
ショナル	-5380
St	-5381
▁:	-5382
恐らく	-5383
と語っている	-5384
の時	-5385
前半	-5386
▁ここ	-5387
カロ	-5388
機が	-5389
を眺	-5390
大型	-5391
いかに	-5392
に位置	-5393
ウィン	-5394
紀元前	-5395
ドー	-5396
殺害	-5397
緊張	-5398
色が	-5399
みたいに	-5400
ユニット	-5401
どこか	-5402
1000	-5403
に限	-5404
留守	-5405
にでも	-5406
少しも	-5407
びっくり	-5408
たん	-5409
の声	-5410
しまつた	-5411
スピード	-5412
EC	-5413
が何	-5414
動か	-5415
戦後	-5416
月号	-5417
階段	-5418
づくり	-5419
ロット	-5420
暮ら	-5421
するには	-5422
ってくる	-5423
リーダー	-5424
▁2015	-5425
62	-5426
けに	-5427
ズが	-5428
統治	-5429
要因	-5430
ていると	-5431
.2	-5432
(^	-5433
に引き	-5434
内部	-5435
安く	-5436
弟子	-5437
ッター	-5438
っていく	-5439
っていると	-5440
であることが	-5441
のでしょうか	-5442
ip	-5443
知る	-5444
を使った	-5445
しと	-5446
メジャー	-5447
はありません	-5448
と思っています	-5449
お店	-5450
one	-5451
ようだ	-5452
カフェ	-5453
珍しい	-5454
へた	-5455
ゆき	-5456
を愛	-5457
年生	-5458
に見える	-5459
デス	-5460
伊勢	-5461
に仕	-5462
滞在	-5463
どんどん	-5464
を主	-5465
介護	-5466
進行	-5467
の内容	-5468
オーディ	-5469
、11	-5470
そこの	-5471
ウェブ	-5472
ce	-5473
あげた	-5474
63	-5475
▁当	-5476
合意	-5477
工夫	-5478
無視	-5479
地方の	-5480
にの	-5481
実践	-5482
退職	-5483
の存在	-5484
中でも	-5485
エピソード	-5486
と評	-5487
コマ	-5488
新潟	-5489
すこし	-5490
つかり	-5491
小林	-5492
不満	-5493
政府は	-5494
に向かって	-5495
のご	-5496
ムは	-5497
相続	-5498
を抑	-5499
成り	-5500
wit	-5501
ように思	-5502
と考えられている	-5503
埼玉	-5504
!」「	-5505
▁一方	-5506
長野	-5507
駄目	-5508
に於て	-5509
ヘッド	-5510
マイル	-5511
薬剤	-5512
キュー	-5513
優れた	-5514
確か	-5515
難い	-5516
ゼント	-5517
明るい	-5518
のですから	-5519
っぷ	-5520
元に	-5521
メニュー	-5522
ございました	-5523
マネ	-5524
執行	-5525
災害	-5526
とは言	-5527
日本で	-5528
必ずしも	-5529
が広	-5530
しん	-5531
ぶら	-5532
師匠	-5533
札幌	-5534
結婚式	-5535
に応じて	-5536
ことにより	-5537
は今	-5538
国会	-5539
その後の	-5540
行う	-5541
わせる	-5542
を得る	-5543
こな	-5544
取材	-5545
天然	-5546
性に	-5547
中から	-5548
部分が	-5549
に基づく	-5550
ハンド	-5551
パック	-5552
プリン	-5553
でもあった	-5554
の娘	-5555
をな	-5556
を増	-5557
力な	-5558
構想	-5559
繰り	-5560
▁さて	-5561
する場合	-5562
公表	-5563
くださ	-5564
BA	-5565
区の	-5566
:00	-5567
人には	-5568
なんだか	-5569
建造	-5570
感想	-5571
がよく	-5572
ことによって	-5573
全員	-5574
単独	-5575
非難	-5576
時期に	-5577
がなかった	-5578
であるから	-5579
言ふ	-5580
基本的に	-5581
コの	-5582
シック	-5583
通常の	-5584
だけではなく	-5585
.1	-5586
を担	-5587
就任	-5588
んでしょう	-5589
わら	-5590
▁#	-5591
はまた	-5592
チャンピオン	-5593
はな	-5594
社が	-5595
資産	-5596
▁だが	-5597
出される	-5598
ab	-5599
妙に	-5600
社会の	-5601
きている	-5602
妻の	-5603
常識	-5604
戦い	-5605
放射	-5606
ことや	-5607
考えている	-5608
に代	-5609
伊藤	-5610
取る	-5611
際の	-5612
この時	-5613
ソング	-5614
一般に	-5615
していただ	-5616
久し	-5617
つなが	-5618
というふうに	-5619
南北	-5620
多分	-5621
、16	-5622
勝手に	-5623
社会的	-5624
▁今回	-5625
ペット	-5626
しまして	-5627
アス	-5628
のみで	-5629
をもつ	-5630
オーバー	-5631
丁目	-5632
反乱	-5633
フィー	-5634
れが	-5635
具合	-5636
吉田	-5637
路を	-5638
サンド	-5639
を試	-5640
官の	-5641
次いで	-5642
を務める	-5643
▁ところが	-5644
ことができます	-5645
如き	-5646
に所属	-5647
パソコン	-5648
来ました	-5649
!』	-5650
オイ	-5651
促進	-5652
を購入	-5653
方から	-5654
▁すると	-5655
サウンド	-5656
取り組み	-5657
完了	-5658
の中を	-5659
一種の	-5660
og	-5661
制定	-5662
というと	-5663
万人	-5664
国道	-5665
演劇	-5666
映画の	-5667
その後は	-5668
申し上げ	-5669
なのである	-5670
わし	-5671
名で	-5672
拡張	-5673
してい	-5674
書かれた	-5675
進出	-5676
可愛い	-5677
ぼん	-5678
ベイ	-5679
十字	-5680
故郷	-5681
、15	-5682
に貢献	-5683
のほか	-5684
ポーランド	-5685
伝える	-5686
うれ	-5687
画家	-5688
芸能	-5689
青い	-5690
ライフ	-5691
読んで	-5692
半島	-5693
収容	-5694
あんまり	-5695
ブー	-5696
英国	-5697
あえず	-5698
の方法	-5699
同様の	-5700
上がった	-5701
個の	-5702
創造	-5703
フォーム	-5704
のであります	-5705
とて	-5706
を大	-5707
彼に	-5708
男女	-5709
衝突	-5710
が出来	-5711
一般的な	-5712
ストレス	-5713
時代には	-5714
と考えられる	-5715
くん	-5716
の両	-5717
くして	-5718
と思ふ	-5719
感じで	-5720
を破	-5721
クは	-5722
迎え	-5723
You	-5724
人たち	-5725
わかった	-5726
定め	-5727
と言われる	-5728
IP	-5729
手は	-5730
千代	-5731
ことだ	-5732
のでき	-5733
スと	-5734
学科	-5735
どもの	-5736
わずかな	-5737
プレイヤー	-5738
感を	-5739
育成	-5740
雇用	-5741
メロ	-5742
文句	-5743
誰が	-5744
研究所	-5745
だけれど	-5746
、)	-5747
ヴァー	-5748
したことが	-5749
で大	-5750
田中	-5751
転職	-5752
邪魔	-5753
▁私の	-5754
やりたい	-5755
の空	-5756
を待	-5757
フジ	-5758
予選	-5759
仏教	-5760
故に	-5761
フィールド	-5762
(「	-5763
AL	-5764
が使	-5765
損害	-5766
教室	-5767
足の	-5768
消えて	-5769
惑星	-5770
民の	-5771
に敗	-5772
外交	-5773
言を	-5774
たしかに	-5775
できません	-5776
▁山	-5777
ジット	-5778
を開始した	-5779
」)	-5780
払い	-5781
重い	-5782
気に入	-5783
つもりで	-5784
下げ	-5785
消滅	-5786
酵素	-5787
驚く	-5788
過ぎて	-5789
三日	-5790
船の	-5791
ポジション	-5792
.3	-5793
したことで	-5794
書籍	-5795
測定	-5796
たとえ	-5797
だけを	-5798
気付	-5799
経過	-5800
▁最近	-5801
同士	-5802
居住	-5803
火の	-5804
2007	-5805
その後も	-5806
つかない	-5807
で一	-5808
春の	-5809
率が	-5810
要望	-5811
▁特に	-5812
を達成	-5813
に入れて	-5814
セイ	-5815
にとど	-5816
2009	-5817
あったが	-5818
アッ	-5819
周年	-5820
喧嘩	-5821
真実	-5822
論理	-5823
ard	-5824
を楽し	-5825
2011	-5826
ものがある	-5827
と大	-5828
ヤン	-5829
▁16	-5830
▁...	-5831
私たちの	-5832
佐藤	-5833
あとは	-5834
変わり	-5835
ik	-5836
ますので	-5837
奴隷	-5838
市立	-5839
施行	-5840
速度	-5841
する必要	-5842
▁日	-5843
けの	-5844
接触	-5845
に留	-5846
ネイ	-5847
枚の	-5848
語で	-5849
以降の	-5850
2015	-5851
ティック	-5852
御座	-5853
指名	-5854
と主張	-5855
と比較	-5856
することになった	-5857
落と	-5858
買って	-5859
飛んで	-5860
食べて	-5861
(*	-5862
人類	-5863
を打ち	-5864
ですけど	-5865
わざわざ	-5866
りも	-5867
地帯	-5868
年で	-5869
最初は	-5870
燃料	-5871
が好き	-5872
っぽい	-5873
行つた	-5874
間違い	-5875
込まれた	-5876
きを	-5877
ところは	-5878
成功した	-5879
際は	-5880
掛けた	-5881
▁9	-5882
動く	-5883
不可能	-5884
政府の	-5885
知って	-5886
ウクライ	-5887
▁、	-5888
筋肉	-5889
不幸	-5890
合流	-5891
自衛	-5892
電力	-5893
400	-5894
を用いて	-5895
シカ	-5896
ベト	-5897
うな	-5898
の神	-5899
わい	-5900
中学	-5901
合成	-5902
2008	-5903
はいけない	-5904
尋ね	-5905
いつでも	-5906
ツの	-5907
兵器	-5908
者や	-5909
並んで	-5910
女性が	-5911
居ります	-5912
SS	-5913
さで	-5914
話す	-5915
レント	-5916
67	-5917
ひき	-5918
保障	-5919
子も	-5920
県立	-5921
事件の	-5922
ったのは	-5923
されているが	-5924
先輩	-5925
私たち	-5926
をさ	-5927
近年	-5928
類似	-5929
とある	-5930
上がる	-5931
線で	-5932
走行	-5933
言えば	-5934
▁2010	-5935
見解	-5936
チームの	-5937
香港	-5938
が悪い	-5939
いつまでも	-5940
が決	-5941
ホン	-5942
侵攻	-5943
夫は	-5944
従って	-5945
じている	-5946
if	-5947
額の	-5948
(^^	-5949
率いる	-5950
驚いた	-5951
.8	-5952
▁コ	-5953
の原	-5954
推測	-5955
美しさ	-5956
返して	-5957
分からない	-5958
ひそ	-5959
明日	-5960
用に	-5961
ことと	-5962
したことを	-5963
歩兵	-5964
であるため	-5965
会見	-5966
妊娠	-5967
時代は	-5968
けている	-5969
プレゼント	-5970
会話	-5971
経緯	-5972
言及	-5973
暮らし	-5974
▁サ	-5975
司法	-5976
タウン	-5977
くも	-5978
とみ	-5979
下で	-5980
等が	-5981
藤原	-5982
館の	-5983
を設立	-5984
それとも	-5985
で行われた	-5986
はる	-5987
市に	-5988
殺された	-5989
予防	-5990
叔父	-5991
ストリア	-5992
パートナー	-5993
監視	-5994
重な	-5995
デモ	-5996
仙台	-5997
負傷	-5998
隊は	-5999
わらず	-6000
ガラス	-6001
人間が	-6002
れなかった	-6003
市内	-6004
誰か	-6005
が設置	-6006
ロング	-6007
いかない	-6008
ねばならぬ	-6009
の事	-6010
古典	-6011
合せ	-6012
飲む	-6013
駆逐	-6014
時間は	-6015
ET	-6016
。』	-6017
占領	-6018
を与え	-6019
に生	-6020
根本	-6021
の下で	-6022
ろうと	-6023
シップ	-6024
ソンは	-6025
にや	-6026
ゲー	-6027
無駄	-6028
連の	-6029
ものだった	-6030
............	-6031
悪魔	-6032
野の	-6033
ソース	-6034
理由は	-6035
を投	-6036
児島	-6037
叫び	-6038
困る	-6039
手伝	-6040
めない	-6041
モスク	-6042
文明	-6043
直し	-6044
若干	-6045
繰り返し	-6046
年にかけて	-6047
方へ	-6048
状の	-6049
2012	-6050
スコット	-6051
現在では	-6052
したものの	-6053
ツァ	-6054
代理	-6055
懸命	-6056
アート	-6057
いたら	-6058
lt	-6059
殺人	-6060
でせう	-6061
のちに	-6062
仕組み	-6063
ますます	-6064
AD	-6065
寒い	-6066
に影響	-6067
らかの	-6068
ポルト	-6069
ヴァイ	-6070
いつもの	-6071
スメ	-6072
遠慮	-6073
レコー	-6074
化して	-6075
からです	-6076
化を	-6077
東洋	-6078
確定	-6079
シュタ	-6080
調べて	-6081
ルが	-6082
違って	-6083
びた	-6084
読む	-6085
近くの	-6086
んですか	-6087
続きを読む	-6088
すり	-6089
キラ	-6090
残り	-6091
を以て	-6092
自転車	-6093
se	-6094
城の	-6095
機は	-6096
かせて	-6097
自分も	-6098
2006	-6099
もう少し	-6100
判定	-6101
主義の	-6102
▁2014	-6103
に触	-6104
国は	-6105
阪神	-6106
アクセス	-6107
プー	-6108
吉の	-6109
意に	-6110
曲は	-6111
見せ	-6112
ールを	-6113
北朝鮮	-6114
問題は	-6115
直に	-6116
自民	-6117
ちゃんは	-6118
なことを	-6119
オンライン	-6120
交差	-6121
光の	-6122
模様	-6123
防ぐ	-6124
2016	-6125
2020	-6126
しむ	-6127
アマ	-6128
スポ	-6129
商売	-6130
翌年	-6131
衆議院	-6132
はじめた	-6133
▁同	-6134
ダブル	-6135
監督の	-6136
してくれた	-6137
テナ	-6138
体重	-6139
実質	-6140
宣伝	-6141
ルニア	-6142
こだ	-6143
予備	-6144
道は	-6145
ッピング	-6146
どり	-6147
に似	-6148
フリ	-6149
住居	-6150
我慢	-6151
独特	-6152
おじ	-6153
を押	-6154
得た	-6155
に寄	-6156
チの	-6157
透明	-6158
ることを	-6159
エド	-6160
此処	-6161
なんと	-6162
まれる	-6163
向けの	-6164
61	-6165
▁元	-6166
彼ら	-6167
以前は	-6168
向いて	-6169
記事を	-6170
の方から	-6171
コラ	-6172
刑事	-6173
強調	-6174
証言	-6175
に来た	-6176
グロー	-6177
わたしの	-6178
アドバイ	-6179
95	-6180
コンサート	-6181
TO	-6182
めで	-6183
に来て	-6184
十分に	-6185
ことなく	-6186
ファイル	-6187
路の	-6188
をつけた	-6189
パフォー	-6190
到達	-6191
在籍	-6192
実績	-6193
用語	-6194
わせて	-6195
▁八	-6196
テレ	-6197
真面	-6198
転換	-6199
配慮	-6200
190	-6201
姉妹	-6202
課程	-6203
したところ	-6204
わっている	-6205
個人の	-6206
小さく	-6207
2019	-6208
.7	-6209
子供が	-6210
がありますが	-6211
一は	-6212
原の	-6213
通称	-6214
避難	-6215
を持っていた	-6216
タバ	-6217
修道	-6218
緊急	-6219
去った	-6220
加えて	-6221
のやうに	-6222
EX	-6223
を呼	-6224
出発	-6225
黄色	-6226
est	-6227
いったい	-6228
もあって	-6229
マスター	-6230
ではあるが	-6231
に基づいて	-6232
▁......	-6233
。4	-6234
お前の	-6235
新しく	-6236
何が	-6237
中国の	-6238
▁例えば	-6239
菓子	-6240
随分	-6241
モデ	-6242
勝負	-6243
和歌	-6244
或は	-6245
部屋の	-6246
2013	-6247
の場合は	-6248
グリーン	-6249
リフォルニア	-6250
すみ	-6251
回収	-6252
りません	-6253
▁2013	-6254
下さ	-6255
頭が	-6256
高度	-6257
カール	-6258
日本国	-6259
気の毒	-6260
を見せて	-6261
受験	-6262
門の	-6263
的である	-6264
▁ま	-6265
静かな	-6266
いくつか	-6267
もう一度	-6268
しているので	-6269
保守	-6270
悪く	-6271
日々	-6272
ティン	-6273
いえば	-6274
いては	-6275
聞くと	-6276
熊本	-6277
IV	-6278
色々	-6279
ファッション	-6280
境界	-6281
発達	-6282
細い	-6283
▁11	-6284
らかな	-6285
されなかった	-6286
大使	-6287
訴訟	-6288
モンド	-6289
呼ばれる	-6290
そんなことを	-6291
気候	-6292
軽く	-6293
へ行って	-6294
コミュニティ	-6295
69	-6296
中華	-6297
得点	-6298
単なる	-6299
ows	-6300
務めた	-6301
収集	-6302
避け	-6303
金は	-6304
たびに	-6305
のなら	-6306
帰った	-6307
かつては	-6308
集合	-6309
をつく	-6310
セプト	-6311
人気の	-6312
入る	-6313
抗議	-6314
資源	-6315
大阪府	-6316
アクション	-6317
しようとした	-6318
説得	-6319
間を	-6320
▁だから	-6321
んですよね	-6322
リュ	-6323
駐車	-6324
▁15	-6325
んじゃ	-6326
自身も	-6327
進んで	-6328
設立された	-6329
▁f	-6330
こゝ	-6331
俺の	-6332
力に	-6333
楽天	-6334
もしろ	-6335
云い	-6336
充分	-6337
雨が	-6338
意志	-6339
▁私が	-6340
人として	-6341
を招	-6342
リエ	-6343
国境	-6344
違反	-6345
の高い	-6346
共産党	-6347
77	-6348
低く	-6349
解消	-6350
になってしまった	-6351
ラブ	-6352
球団	-6353
素敵	-6354
効果が	-6355
比べると	-6356
ッて	-6357
愉快	-6358
潜水	-6359
現代の	-6360
けっ	-6361
アは	-6362
同意	-6363
ine	-6364
らせる	-6365
世紀の	-6366
併し	-6367
国が	-6368
洗濯	-6369
▁2008	-6370
RE	-6371
ne	-6372
に際	-6373
故障	-6374
の対象	-6375
ますし	-6376
橋の	-6377
ベッド	-6378
などから	-6379
▁2009	-6380
がと	-6381
ゼロ	-6382
怪我	-6383
買う	-6384
ないが	-6385
をつか	-6386
をとり	-6387
を結ぶ	-6388
自身は	-6389
GP	-6390
興行	-6391
が出た	-6392
-2	-6393
ラは	-6394
移転	-6395
線は	-6396
述べた	-6397
。5	-6398
会で	-6399
単身	-6400
地獄	-6401
ヒュー	-6402
人間は	-6403
ポケット	-6404
へお	-6405
切る	-6406
守備	-6407
文献	-6408
見積	-6409
と言われ	-6410
▁2012	-6411
グロ	-6412
一本	-6413
何時	-6414
側が	-6415
入学	-6416
基地	-6417
田が	-6418
認知	-6419
に入れ	-6420
時代から	-6421
こういった	-6422
▁オ	-6423
めえ	-6424
山に	-6425
深刻	-6426
ブーム	-6427
メイク	-6428
メキシ	-6429
以前に	-6430
出する	-6431
と云って	-6432
んですね	-6433
66	-6434
;)	-6435
▁二	-6436
母が	-6437
評論	-6438
選び	-6439
があつた	-6440
との関係	-6441
いましょう	-6442
人工	-6443
協議	-6444
安倍	-6445
うちの	-6446
鹿児島	-6447
みず	-6448
さっき	-6449
ベート	-6450
%、	-6451
たた	-6452
の形	-6453
十一	-6454
じゅう	-6455
ジャック	-6456
センチ	-6457
▁もちろん	-6458
ひら	-6459
カッ	-6460
品質	-6461
そっと	-6462
でなく	-6463
に出た	-6464
▁上	-6465
れは	-6466
エト	-6467
モニ	-6468
我々	-6469
と同じく	-6470
以前から	-6471
▁※	-6472
こいつ	-6473
の人々	-6474
側から	-6475
2017	-6476
▁2011	-6477
MS	-6478
が終	-6479
就職	-6480
皆さん	-6481
▁や	-6482
ハル	-6483
なのは	-6484
年代に	-6485
様子を	-6486
めながら	-6487
をつける	-6488
得られる	-6489
後で	-6490
殊に	-6491
立た	-6492
貨物	-6493
何だか	-6494
*)	-6495
浮気	-6496
進歩	-6497
の名称	-6498
頃には	-6499
▁平次は	-6500
コメ	-6501
隣接	-6502
バーグ	-6503
78	-6504
エク	-6505
合理	-6506
色を	-6507
らした	-6508
主人の	-6509
してゐた	-6510
なんとか	-6511
発見された	-6512
オーストリア	-6513
タイト	-6514
人々は	-6515
雰囲気	-6516
2014	-6517
ここまで	-6518
セミ	-6519
唯一	-6520
市で	-6521
公開された	-6522
▁■	-6523
早速	-6524
真似	-6525
も多い	-6526
手法	-6527
釣り	-6528
ジョー	-6529
番組の	-6530
レストラン	-6531
及ぶ	-6532
市は	-6533
本部	-6534
なれば	-6535
の関係	-6536
ぶりの	-6537
巨大な	-6538
2018	-6539
中村	-6540
ess	-6541
ランク	-6542
受けた	-6543
でて	-6544
リの	-6545
才能	-6546
外壁塗装	-6547
きわ	-6548
の有	-6549
まゝ	-6550
を備	-6551
回る	-6552
町村	-6553
が一番	-6554
クール	-6555
マンの	-6556
司令官	-6557
まだまだ	-6558
一般的に	-6559
顔をして	-6560
HE	-6561
反映	-6562
心臓	-6563
戦を	-6564
かかった	-6565
それでは	-6566
数学	-6567
東西	-6568
カリフォルニア	-6569
区域	-6570
各種	-6571
四郎	-6572
相撲	-6573
ぼんやり	-6574
を超える	-6575
と言われて	-6576
おば	-6577
次は	-6578
酸化	-6579
十分な	-6580
を目指す	-6581
発明	-6582
締め	-6583
こんだ	-6584
いきます	-6585
に乗って	-6586
具体的な	-6587
來る	-6588
島は	-6589
斯う	-6590
言ひ	-6591
野郎	-6592
チャート	-6593
▁昨	-6594
ぎり	-6595
ナウ	-6596
コピー	-6597
のかもしれません	-6598
ちは	-6599
にくい	-6600
を出て	-6601
既存	-6602
企業の	-6603
を始めた	-6604
ようですが	-6605
88	-6606
新規	-6607
返す	-6608
ポスト	-6609
地元の	-6610
隣の	-6611
を呼び	-6612
激しく	-6613
組み合わせ	-6614
返し	-6615
からお	-6616
になれば	-6617
に頼	-6618
をく	-6619
アシ	-6620
エジ	-6621
意思	-6622
最適	-6623
顧客	-6624
クリーム	-6625
が行われる	-6626
がす	-6627
翌日	-6628
が大きく	-6629
まらない	-6630
AA	-6631
せぬ	-6632
にわ	-6633
トム	-6634
国鉄	-6635
遺跡	-6636
あげる	-6637
アイル	-6638
大いに	-6639
亡くなった	-6640
パフォーマン	-6641
2005	-6642
▁リ	-6643
伯爵	-6644
削減	-6645
息を	-6646
ロマン	-6647
写真を	-6648
本作の	-6649
そのとき	-6650
なんでも	-6651
員は	-6652
純粋	-6653
そこは	-6654
の原因	-6655
だろうと	-6656
▁そういう	-6657
していった	-6658
下り	-6659
及ぼ	-6660
清水	-6661
町に	-6662
石川	-6663
意味で	-6664
ちゃんの	-6665
にかかる	-6666
来ている	-6667
にく	-6668
サウ	-6669
予測	-6670
駈け	-6671
メダ	-6672
不良	-6673
作は	-6674
元気	-6675
講師	-6676
に行き	-6677
を形成	-6678
を持た	-6679
離れて	-6680
まとめて	-6681
ようである	-6682
サービスを	-6683
)1	-6684
歌を	-6685
衝撃	-6686
西部	-6687
詰め	-6688
ジュニア	-6689
の代	-6690
令和	-6691
明智	-6692
講演	-6693
顔の	-6694
せいか	-6695
その上	-6696
の歴史	-6697
カウン	-6698
知らせ	-6699
いまして	-6700
となったが	-6701
けていた	-6702
少しでも	-6703
口は	-6704
奉行	-6705
あとで	-6706
を設置	-6707
クリスト	-6708
三人	-6709
往来	-6710
被告	-6711
面で	-6712
再度	-6713
日曜	-6714
襲撃	-6715
軍に	-6716
道に	-6717
へ出て	-6718
上がって	-6719
しな	-6720
看板	-6721
かと思	-6722
クロー	-6723
年間の	-6724
最高の	-6725
位は	-6726
政治的	-6727
▁and	-6728
政党	-6729
とされた	-6730
えなかった	-6731
ことにした	-6732
▁天	-6733
上り	-6734
加減	-6735
日本に	-6736
クレジット	-6737
小型	-6738
投手	-6739
死の	-6740
しやすい	-6741
パパ	-6742
再現	-6743
スティー	-6744
がた	-6745
スで	-6746
夕方	-6747
機嫌	-6748
自治体	-6749
室に	-6750
ハム	-6751
再建	-6752
フライ	-6753
ブライ	-6754
使って	-6755
急いで	-6756
89	-6757
本を	-6758
耳を	-6759
遺産	-6760
ままで	-6761
レッジ	-6762
複雑な	-6763
イラスト	-6764
。7	-6765
深夜	-6766
あいつ	-6767
得ない	-6768
悲しい	-6769
生きる	-6770
EN	-6771
どん	-6772
以外に	-6773
容易に	-6774
に従って	-6775
美味しい	-6776
も行	-6777
今度	-6778
版の	-6779
魔法	-6780
を選ぶ	-6781
優しい	-6782
意見を	-6783
によつて	-6784
アナウン	-6785
付けられた	-6786
二重	-6787
ベット	-6788
絶対に	-6789
がかかる	-6790
されるが	-6791
等に	-6792
限界	-6793
フェル	-6794
者には	-6795
持っている	-6796
アム	-6797
同一	-6798
軽い	-6799
遠征	-6800
の裏	-6801
例外	-6802
援助	-6803
感じる	-6804
金剛筋	-6805
くれない	-6806
トレード	-6807
トレーニング	-6808
らか	-6809
会う	-6810
勢力	-6811
命名	-6812
変な	-6813
現地	-6814
矛盾	-6815
に立ち	-6816
も多く	-6817
ありがとうございます	-6818
av	-6819
の奥	-6820
を起	-6821
主催	-6822
国王	-6823
振る	-6824
検証	-6825
出され	-6826
総選挙	-6827
プロレス	-6828
書いている	-6829
しかしながら	-6830
az	-6831
あが	-6832
冗談	-6833
宮崎	-6834
復興	-6835
いっぱい	-6836
のであれば	-6837
掲示	-6838
賛成	-6839
▁in	-6840
動画	-6841
陸上	-6842
関係の	-6843
なんですが	-6844
含まれている	-6845
gt	-6846
▁/	-6847
高級	-6848
するようになった	-6849
りや	-6850
一層	-6851
夫が	-6852
待って	-6853
わかって	-6854
のではないかと	-6855
新設	-6856
で最も	-6857
からなる	-6858
ちゃんが	-6859
とのこと	-6860
金剛筋シャツ	-6861
自覚	-6862
今では	-6863
美しく	-6864
美術館	-6865
ドライバー	-6866
久保	-6867
品を	-6868
当な	-6869
▁2007	-6870
、2010	-6871
indows	-6872
おる	-6873
親切	-6874
アリー	-6875
適切な	-6876
引き続き	-6877
出している	-6878
北部	-6879
政治家	-6880
側面	-6881
性と	-6882
知事	-6883
秋田	-6884
空き	-6885
クロス	-6886
スパイ	-6887
はしない	-6888
タンパク	-6889
初めての	-6890
マド	-6891
声優	-6892
するの	-6893
らせた	-6894
んだり	-6895
組んで	-6896
▁2020	-6897
年と	-6898
演説	-6899
花の	-6900
認める	-6901
に就任した	-6902
が流	-6903
オレ	-6904
リコ	-6905
前は	-6906
学院	-6907
店で	-6908
笑った	-6909
と言える	-6910
ぼう	-6911
祖父	-6912
。17	-6913
ールが	-6914
今後の	-6915
そこまで	-6916
ウクライナ	-6917
岡山	-6918
運び	-6919
ブック	-6920
どうやら	-6921
使用される	-6922
コミュニケーション	-6923
▁もし	-6924
ミサイ	-6925
リアン	-6926
められる	-6927
大将	-6928
定着	-6929
感心	-6930
走る	-6931
けると	-6932
始まった	-6933
といわれる	-6934
薄い	-6935
に関係	-6936
コート	-6937
つて居る	-6938
を作って	-6939
アイルランド	-6940
に手	-6941
ペー	-6942
加藤	-6943
駅の	-6944
侵入	-6945
停車	-6946
危機	-6947
閉鎖	-6948
するも	-6949
と言ふ	-6950
理由で	-6951
立てて	-6952
落ちた	-6953
られました	-6954
ナショナル	-6955
CO	-6956
残る	-6957
山田	-6958
武装	-6959
研修	-6960
ベルク	-6961
ジャーナ	-6962
生きている	-6963
懸念	-6964
書類	-6965
量を	-6966
始まる	-6967
ヒロ	-6968
免許	-6969
共演	-6970
登場した	-6971
見られる	-6972
にしている	-6973
立っている	-6974
^)	-6975
が通	-6976
くせ	-6977
わす	-6978
回り	-6979
秋の	-6980
顔を見	-6981
受け入れ	-6982
ob	-6983
今も	-6984
分割	-6985
妻は	-6986
石を	-6987
頻繁	-6988
みれば	-6989
レスの	-6990
した場合	-6991
キッチン	-6992
フランク	-6993
ふり	-6994
れも	-6995
を払	-6996
スパ	-6997
教科	-6998
ほんの	-6999
色々な	-7000
できると	-7001
ロウ	-7002
世帯	-7003
折り	-7004
車で	-7005
馴染	-7006
の開発	-7007
を描いた	-7008
のですか	-7009
こともあった	-7010
弟の	-7011
600	-7012
オート	-7013
あまりに	-7014
これまでの	-7015
アカデミー	-7016
▁。	-7017
べた	-7018
多様	-7019
甚だ	-7020
諸国	-7021
顔が	-7022
みよう	-7023
大学で	-7024
者から	-7025
部分を	-7026
しないと	-7027
につれて	-7028
時点では	-7029
マニ	-7030
自由に	-7031
スウェー	-7032
はほとんど	-7033
アウ	-7034
胸に	-7035
さらには	-7036
を意味する	-7037
名義	-7038
外部	-7039
大分	-7040
どっち	-7041
トライ	-7042
ところの	-7043
なるべく	-7044
神奈川県	-7045
変動	-7046
点に	-7047
葉の	-7048
それだけ	-7049
)2	-7050
。8	-7051
メガ	-7052
主題	-7053
諸島	-7054
文庫	-7055
を発見	-7056
場所に	-7057
行する	-7058
こととなった	-7059
ht	-7060
コツ	-7061
加工	-7062
所得	-7063
話して	-7064
過ぎた	-7065
2,	-7066
フー	-7067
体育	-7068
サブ	-7069
夫人	-7070
かしら	-7071
スマート	-7072
つは	-7073
を食べ	-7074
分かる	-7075
このように	-7076
.4	-7077
AK	-7078
どき	-7079
日間	-7080
水は	-7081
なりに	-7082
社会主義	-7083
(『	-7084
つに	-7085
バカ	-7086
女中	-7087
実感	-7088
苦痛	-7089
ダンス	-7090
...」	-7091
ほんとに	-7092
そうですが	-7093
コンセプト	-7094
使用された	-7095
の元	-7096
なんぞ	-7097
に立つ	-7098
まいか	-7099
しかなかった	-7100
好み	-7101
締結	-7102
ともい	-7103
之丞	-7104
入手	-7105
小僧	-7106
通算	-7107
はれる	-7108
今でも	-7109
敵の	-7110
期限	-7111
貧乏	-7112
を維持	-7113
国民の	-7114
年以上	-7115
本作は	-7116
チームは	-7117
150	-7118
というので	-7119
っているので	-7120
を受けている	-7121
下が	-7122
の方向	-7123
ボディ	-7124
方がいい	-7125
を脱	-7126
協定	-7127
堂の	-7128
改修	-7129
甲斐	-7130
該当	-7131
いいえ	-7132
を開催	-7133
ストの	-7134
フォーク	-7135
SP	-7136
分を	-7137
気温	-7138
こない	-7139
任した	-7140
度目の	-7141
わけには	-7142
スタント	-7143
ヒル	-7144
とされ	-7145
年前に	-7146
細かい	-7147
誰でも	-7148
を取って	-7149
摂取	-7150
うしろ	-7151
たくさんの	-7152
のであつた	-7153
おき	-7154
アミ	-7155
学会	-7156
御用	-7157
永遠	-7158
白く	-7159
に由来	-7160
バージョン	-7161
li	-7162
だめ	-7163
へ移	-7164
▁In	-7165
が無い	-7166
に関連	-7167
心から	-7168
さういふ	-7169
とかいう	-7170
かれていた	-7171
などがある	-7172
IM	-7173
らば	-7174
を辞	-7175
ッズ	-7176
報酬	-7177
小田	-7178
文芸	-7179
突っ	-7180
銀座	-7181
コレク	-7182
シリア	-7183
全日本	-7184
我々は	-7185
でもあり	-7186
コンテン	-7187
バッグ	-7188
起きた	-7189
との間に	-7190
ントリー	-7191
続けている	-7192
たゞ	-7193
の特	-7194
入口	-7195
となります	-7196
ニス	-7197
女を	-7198
尽く	-7199
心得	-7200
著書	-7201
▁費用	-7202
昔から	-7203
特別な	-7204
しないで	-7205
ブレーキ	-7206
一同	-7207
場は	-7208
消え	-7209
いかが	-7210
ジェイ	-7211
能力を	-7212
自体が	-7213
これらは	-7214
ありませんが	-7215
回避	-7216
引用	-7217
に加え	-7218
をかける	-7219
されてきた	-7220
`)	-7221
やま	-7222
語る	-7223
を読み	-7224
叫んだ	-7225
土地の	-7226
詳しく	-7227
を用いた	-7228
フランシ	-7229
歌う	-7230
目指	-7231
音の	-7232
じょう	-7233
もって	-7234
ここでは	-7235
一歩	-7236
下を	-7237
其処	-7238
推薦	-7239
火災	-7240
空の	-7241
脂肪	-7242
そいつ	-7243
足りない	-7244
チャンネル	-7245
は前	-7246
來て	-7247
法案	-7248
輸出	-7249
が開始	-7250
の人に	-7251
られず	-7252
トーク	-7253
というのも	-7254
と改	-7255
ついで	-7256
本当の	-7257
▁ただし	-7258
まことに	-7259
プレミア	-7260
に合わせて	-7261
ソナ	-7262
デア	-7263
当局	-7264
有の	-7265
様式	-7266
められて	-7267
を有する	-7268
したように	-7269
ぶる	-7270
増えて	-7271
考え方	-7272
してください	-7273
.6	-7274
揚げ	-7275
。6	-7276
大衆	-7277
旅客	-7278
歌手	-7279
量に	-7280
降りて	-7281
してある	-7282
変わって	-7283
内は	-7284
そうか	-7285
を使い	-7286
エジプト	-7287
十八	-7288
疾患	-7289
そりゃ	-7290
わざと	-7291
パクト	-7292
描いた	-7293
せっかく	-7294
タイプの	-7295
使われる	-7296
な人	-7297
の底	-7298
兄の	-7299
水に	-7300
色に	-7301
ますよ	-7302
を出し	-7303
して来た	-7304
述べている	-7305
を命	-7306
井上	-7307
尤も	-7308
ソンの	-7309
一定の	-7310
本来の	-7311
することができます	-7312
ナチ	-7313
位で	-7314
末の	-7315
火を	-7316
ice	-7317
たちも	-7318
正式に	-7319
自然に	-7320
いざ	-7321
すば	-7322
十郎	-7323
本が	-7324
東部	-7325
あたし	-7326
笑って	-7327
するまで	-7328
のリ	-7329
を退	-7330
彫刻	-7331
烈な	-7332
シンプル	-7333
任意	-7334
幼稚	-7335
役の	-7336
稽古	-7337
答弁	-7338
かせる	-7339
せられる	-7340
描かれている	-7341
娘は	-7342
警戒	-7343
ふたり	-7344
フィルム	-7345
創作	-7346
問い	-7347
恥ず	-7348
おれは	-7349
チック	-7350
ニーズ	-7351
保管	-7352
城県	-7353
を守る	-7354
ゲット	-7355
ではある	-7356
もなかった	-7357
二次	-7358
削除	-7359
化が	-7360
まさか	-7361
発した	-7362
避ける	-7363
があまり	-7364
すことが	-7365
-3	-7366
を高	-7367
かろう	-7368
の中央	-7369
以外にも	-7370
がき	-7371
ラグ	-7372
光景	-7373
著名	-7374
マネー	-7375
ギリシャ	-7376
ソフトウェア	-7377
アメリカ合衆国の	-7378
やさ	-7379
及ば	-7380
権限	-7381
背負	-7382
兵衛は	-7383
われます	-7384
と記	-7385
今夜	-7386
作る	-7387
成し	-7388
色は	-7389
感じが	-7390
72	-7391
しげ	-7392
の重	-7393
川に	-7394
誘導	-7395
々しく	-7396
から出	-7397
セラ	-7398
ボク	-7399
岐阜	-7400
幅に	-7401
石油	-7402
組む	-7403
この頃	-7404
博士は	-7405
外国人	-7406
捨てて	-7407
に入ると	-7408
に基づき	-7409
pp	-7410
お話	-7411
番の	-7412
集落	-7413
高さ	-7414
▁()	-7415
ちの	-7416
ひょ	-7417
川崎	-7418
昇進	-7419
だつて	-7420
先生が	-7421
愛知県	-7422
れん	-7423
主な	-7424
入力	-7425
描き	-7426
隊が	-7427
見れば	-7428
キャンプ	-7429
カトリック	-7430
になっています	-7431
。9	-7432
で出	-7433
を伴	-7434
しょに	-7435
考へて	-7436
しておく	-7437
と言われた	-7438
仕方がない	-7439
食い	-7440
タイヤ	-7441
作品が	-7442
もあるが	-7443
ものとして	-7444
できるように	-7445
85	-7446
打撃	-7447
探し	-7448
遂に	-7449
に出る	-7450
日より	-7451
であるか	-7452
の海	-7453
原稿	-7454
急速	-7455
科の	-7456
わたる	-7457
ウェル	-7458
飲んで	-7459
ホイ	-7460
審査	-7461
ばれる	-7462
行して	-7463
包囲	-7464
誤解	-7465
ークス	-7466
月まで	-7467
見えない	-7468
しっかりと	-7469
レコーディング	-7470
86	-7471
びて	-7472
カテ	-7473
ストロ	-7474
▁こんな	-7475
ディアン	-7476
ライダー	-7477
引越センター	-7478
)7	-7479
AI	-7480
を許	-7481
新宿	-7482
統計	-7483
ラテン	-7484
ベトナム	-7485
シーズンは	-7486
、......	-7487
ようになりました	-7488
ct	-7489
ha	-7490
なじ	-7491
ポル	-7492
三年	-7493
大抵	-7494
決意	-7495
血液	-7496
それと	-7497
使える	-7498
違った	-7499
ことには	-7500
よろしい	-7501
パターン	-7502
分らない	-7503
安心して	-7504
が有	-7505
だん	-7506
葬儀	-7507
オペラ	-7508
タリー	-7509
自体は	-7510
できるだけ	-7511
▁長	-7512
の身	-7513
条の	-7514
確実	-7515
ラーの	-7516
何かの	-7517
わぬ	-7518
パウ	-7519
光を	-7520
しちゃ	-7521
失礼	-7522
。10	-7523
エティ	-7524
労働者	-7525
ベルリン	-7526
ではなくて	-7527
そく	-7528
市が	-7529
沙汰	-7530
委員長	-7531
に入れた	-7532
年からは	-7533
ということも	-7534
▁n	-7535
は本	-7536
施工	-7537
水道	-7538
消防	-7539
インテ	-7540
受ける	-7541
夫人は	-7542
認めた	-7543
サービスの	-7544
せし	-7545
やお	-7546
を兼	-7547
中古	-7548
料の	-7549
顔で	-7550
ヴェル	-7551
五郎は	-7552
メキシコ	-7553
witter	-7554
▁w	-7555
が続	-7556
ゾン	-7557
事項	-7558
怖い	-7559
民衆	-7560
通貨	-7561
を挙げ	-7562
付いて	-7563
場所は	-7564
埋め	-7565
学び	-7566
所謂	-7567
程の	-7568
▁おすすめ	-7569
がありません	-7570
交代	-7571
会計	-7572
戦う	-7573
渋谷	-7574
高橋	-7575
ゆえに	-7576
ディズ	-7577
ードの	-7578
着いた	-7579
コントロール	-7580
ひた	-7581
従業	-7582
権の	-7583
ろうか	-7584
96	-7585
排除	-7586
こんど	-7587
東京の	-7588
下ろ	-7589
幹線	-7590
木村	-7591
自体	-7592
が高く	-7593
最後まで	-7594
行われる	-7595
助は	-7596
学的	-7597
馬は	-7598
来ない	-7599
のに対し	-7600
ことがあります	-7601
一応	-7602
君に	-7603
曲が	-7604
腕を	-7605
獲得した	-7606
ゴミ	-7607
愛情	-7608
森林	-7609
紙の	-7610
で構成	-7611
時間に	-7612
ダメージ	-7613
フロント	-7614
お互	-7615
光が	-7616
塗り	-7617
の前で	-7618
を書き	-7619
息子の	-7620
のうちに	-7621
91	-7622
BO	-7623
ハラ	-7624
同情	-7625
基盤	-7626
art	-7627
テープ	-7628
前には	-7629
買った	-7630
していなかった	-7631
UN	-7632
▁イ	-7633
さり	-7634
体系	-7635
後悔	-7636
眼が	-7637
を取る	-7638
会った	-7639
言葉は	-7640
に向かう	-7641
のひとつ	-7642
でございますが	-7643
マッ	-7644
題材	-7645
ノート	-7646
えました	-7647
ということです	-7648
に適	-7649
臨時	-7650
止める	-7651
を用いる	-7652
発生した	-7653
すく	-7654
んや	-7655
公立	-7656
松本	-7657
真剣	-7658
うえで	-7659
、190	-7660
▁ちなみに	-7661
参謀	-7662
同僚	-7663
どころか	-7664
に加えて	-7665
ナは	-7666
全米	-7667
勢の	-7668
含む	-7669
総理	-7670
野は	-7671
おいて	-7672
無かった	-7673
ue	-7674
っそ	-7675
済み	-7676
なきゃ	-7677
ヴィン	-7678
我々の	-7679
戦争の	-7680
味わ	-7681
嫌い	-7682
疲れ	-7683
かかり	-7684
そうと	-7685
やっている	-7686
▁平	-7687
局長	-7688
ist	-7689
教会の	-7690
2004	-7691
ほとんどの	-7692
97	-7693
を抜	-7694
かねて	-7695
ネーム	-7696
わか	-7697
ホテ	-7698
女王	-7699
年頃	-7700
ディス	-7701
彼らが	-7702
番目の	-7703
でもいい	-7704
といえる	-7705
よろしく	-7706
イスラム	-7707
力と	-7708
勝手	-7709
姿が	-7710
投入	-7711
殺し	-7712
法が	-7713
舞い	-7714
フット	-7715
受けて	-7716
だったり	-7717
ばかりでなく	-7718
ge	-7719
医者	-7720
ここの	-7721
つては	-7722
之助は	-7723
女性は	-7724
行した	-7725
、2008	-7726
することができ	-7727
の目	-7728
みつ	-7729
ロゴ	-7730
時分	-7731
痛み	-7732
語を	-7733
ran	-7734
としたら	-7735
を狙	-7736
保持	-7737
足が	-7738
年代の	-7739
髪の毛	-7740
一言	-7741
入院	-7742
商店	-7743
奉公	-7744
あんた	-7745
るので	-7746
状況を	-7747
してくる	-7748
になっても	-7749
あや	-7750
一枚	-7751
東映	-7752
発揮	-7753
までが	-7754
プロー	-7755
もとより	-7756
を繰り返	-7757
、2006	-7758
ことがあった	-7759
ケイ	-7760
分布	-7761
忍び	-7762
ハート	-7763
寄って	-7764
楽しく	-7765
そろそろ	-7766
合わせる	-7767
、2007	-7768
があるから	-7769
au	-7770
プス	-7771
意義	-7772
提示	-7773
正面	-7774
を知る	-7775
客観	-7776
尊敬	-7777
書は	-7778
長さ	-7779
離れ	-7780
を紹介	-7781
ビット	-7782
に入れる	-7783
▁2006	-7784
出で	-7785
後期	-7786
心地	-7787
)、『	-7788
▁こう	-7789
に相違	-7790
アレク	-7791
オフィ	-7792
マニア	-7793
ブラジル	-7794
気がする	-7795
に大きな	-7796
に立って	-7797
と言われている	-7798
初回	-7799
号の	-7800
▁相場	-7801
植民地	-7802
オススメ	-7803
76	-7804
分解	-7805
街道	-7806
止めて	-7807
サス	-7808
加盟	-7809
沿岸	-7810
▁de	-7811
を除く	-7812
テイン	-7813
レンズ	-7814
内容は	-7815
考えていた	-7816
と同じように	-7817
はれ	-7818
人材	-7819
大手	-7820
に入学	-7821
残った	-7822
1990	-7823
たちまち	-7824
が見られる	-7825
に思	-7826
掲示板	-7827
相手が	-7828
このまま	-7829
していました	-7830
当た	-7831
月は	-7832
独り	-7833
おいで	-7834
に任命	-7835
ポップ	-7836
かというと	-7837
可能である	-7838
考えられる	-7839
92	-7840
の最	-7841
分子	-7842
満ち	-7843
驚き	-7844
を思い	-7845
アクセ	-7846
マンは	-7847
怪しい	-7848
に属する	-7849
チケット	-7850
を記録した	-7851
を問	-7852
買収	-7853
たまた	-7854
を選択	-7855
寄せて	-7856
感じて	-7857
行くと	-7858
ショック	-7859
まっていた	-7860
とん	-7861
数十	-7862
本社	-7863
本質	-7864
内には	-7865
年以降	-7866
濃い	-7867
確信	-7868
ers	-7869
を組み	-7870
二人で	-7871
完全な	-7872
が始まった	-7873
凄い	-7874
編入	-7875
装飾	-7876
重視	-7877
ここへ	-7878
を務め	-7879
売買	-7880
朝は	-7881
線に	-7882
をとる	-7883
暴力	-7884
ここは	-7885
にはい	-7886
もこの	-7887
フレー	-7888
プロセ	-7889
学生の	-7890
思いが	-7891
手続き	-7892
インスト	-7893
ギリシア	-7894
スクール	-7895
ステップ	-7896
モスクワ	-7897
というものが	-7898
)5	-7899
▁v	-7900
タの	-7901
不正	-7902
抱き	-7903
条例	-7904
の手紙	-7905
を表明	-7906
タッチ	-7907
話した	-7908
少しずつ	-7909
ずい	-7910
を支	-7911
度か	-7912
眼鏡	-7913
返信	-7914
他人の	-7915
▁つまり	-7916
基本的な	-7917
が存在する	-7918
をき	-7919
クイ	-7920
住む	-7921
俺が	-7922
級の	-7923
領土	-7924
起きて	-7925
しまうと	-7926
に向って	-7927
ことがない	-7928
元々	-7929
学術	-7930
の際に	-7931
子さん	-7932
決勝で	-7933
確実に	-7934
ひました	-7935
日本人の	-7936
最初から	-7937
叩き	-7938
同時	-7939
近づいて	-7940
声は	-7941
宿泊	-7942
打率	-7943
民国	-7944
追放	-7945
のやうな	-7946
マイクロ	-7947
、2009	-7948
でなければ	-7949
▁水	-7950
がち	-7951
こも	-7952
会は	-7953
先ず	-7954
反省	-7955
短期	-7956
向こう	-7957
正しく	-7958
述べて	-7959
フジテレビ	-7960
1/	-7961
94	-7962
海上	-7963
衛星	-7964
議長	-7965
鉄の	-7966
まわり	-7967
ランプ	-7968
業者の	-7969
にあたり	-7970
決定した	-7971
▁も	-7972
モア	-7973
敗北	-7974
総督	-7975
800	-7976
のだと	-7977
ケート	-7978
がら	-7979
わん	-7980
不動	-7981
を展開	-7982
世界に	-7983
付いた	-7984
ませんでしたが	-7985
87	-7986
課長	-7987
週刊	-7988
ジェーム	-7989
する必要がある	-7990
モリ	-7991
▁14	-7992
なさる	-7993
に従事	-7994
ドーム	-7995
かかって	-7996
を見つけ	-7997
と思ったら	-7998
ことができた	-7999
ミリ	-8000
十六	-8001
死刑	-8002
を実現	-8003
オーク	-8004
ターは	-8005
上った	-8006
場所で	-8007
コンクリー	-8008
場合もある	-8009
られていない	-8010
始末	-8011
東海	-8012
機動	-8013
機種	-8014
毎週	-8015
汚染	-8016
緩和	-8017
英雄	-8018
上記の	-8019
夫人の	-8020
求める	-8021
苦しみ	-8022
をいただ	-8023
ジャンプ	-8024
プリント	-8025
っているが	-8026
に違いない	-8027
』、	-8028
世が	-8029
作詞	-8030
解析	-8031
2021	-8032
つつある	-8033
を求めて	-8034
ばれ	-8035
示唆	-8036
継ぎ	-8037
見つ	-8038
譲渡	-8039
▁料金	-8040
らずに	-8041
歩いた	-8042
生活に	-8043
...。	-8044
フレーム	-8045
なんとなく	-8046
もありますが	-8047
の道	-8048
昨夜	-8049
ell	-8050
。12	-8051
はれて	-8052
ミック	-8053
はかなり	-8054
を救	-8055
新型	-8056
服装	-8057
電源	-8058
ウィル	-8059
ビッグ	-8060
ロサン	-8061
を果たす	-8062
とりあえず	-8063
▁名	-8064
だす	-8065
やむ	-8066
冒険	-8067
土曜	-8068
後述	-8069
胸を	-8070
自慢	-8071
ヴィル	-8072
直ちに	-8073
ディスク	-8074
、2012	-8075
挙げられる	-8076
することによって	-8077
マジ	-8078
体調	-8079
戦死	-8080
連隊	-8081
駆動	-8082
)10	-8083
と同様	-8084
問題の	-8085
ひとつの	-8086
でしょうが	-8087
イスラエル	-8088
▁金	-8089
荷物	-8090
農民	-8091
チーフ	-8092
大規模な	-8093
があったが	-8094
最終的には	-8095
で開催された	-8096
思考	-8097
ある日	-8098
の如く	-8099
自民党	-8100
交際	-8101
曰く	-8102
本人	-8103
ージェ	-8104
めん	-8105
all	-8106
の方の	-8107
に至った	-8108
に送	-8109
ゐて	-8110
別れ	-8111
娘が	-8112
次元	-8113
▁まず	-8114
に到着	-8115
ヴァル	-8116
日本は	-8117
ロバート	-8118
GM	-8119
PO	-8120
iP	-8121
幼い	-8122
警備	-8123
どうせ	-8124
取り上げ	-8125
に与	-8126
地図	-8127
振興	-8128
)12	-8129
の状態	-8130
バンク	-8131
三人の	-8132
用いる	-8133
兵衞	-8134
士官	-8135
快適	-8136
時刻	-8137
真理	-8138
どこの	-8139
を代表	-8140
ビング	-8141
今から	-8142
数多く	-8143
と呼ばれた	-8144
いたしました	-8145
大和	-8146
教員	-8147
日で	-8148
月末	-8149
着物	-8150
護衛	-8151
進む	-8152
スポン	-8153
マンガ	-8154
三郎は	-8155
分けて	-8156
は非常に	-8157
交通事故	-8158
ものですから	-8159
オプ	-8160
マシ	-8161
上映	-8162
交響	-8163
山本	-8164
弁当	-8165
顔に	-8166
掛ける	-8167
身につ	-8168
73	-8169
に遭	-8170
やれ	-8171
時も	-8172
影響を	-8173
読んだ	-8174
、2000	-8175
ものではなく	-8176
木は	-8177
水準	-8178
流通	-8179
になら	-8180
に伴う	-8181
グランド	-8182
するとともに	-8183
スン	-8184
ドウ	-8185
一致	-8186
独占	-8187
組の	-8188
面は	-8189
を指す	-8190
れており	-8191
シリーズの	-8192
試合に出場	-8193
いらっしゃる	-8194
)8	-8195
サム	-8196
公務	-8197
突破	-8198
自主	-8199
Tub	-8200
を搭載	-8201
ナーの	-8202
顔は	-8203
が認め	-8204
の上を	-8205
する方法	-8206
そんなこと	-8207
になっており	-8208
、“	-8209
ニヤ	-8210
僕も	-8211
告げ	-8212
進学	-8213
それら	-8214
過ぎる	-8215
このとき	-8216
、2011	-8217
-6	-8218
セレ	-8219
望む	-8220
興奮	-8221
装甲	-8222
高額	-8223
を生み	-8224
マシン	-8225
重大な	-8226
知らなかった	-8227
うか	-8228
を広	-8229
女に	-8230
情熱	-8231
肩を	-8232
警官	-8233
よって	-8234
ユーザ	-8235
あたりの	-8236
格安	-8237
界の	-8238
ant	-8239
ナルド	-8240
トンネル	-8241
可哀	-8242
戦に	-8243
顧問	-8244
リーが	-8245
借りて	-8246
内容を	-8247
出来なかった	-8248
FX	-8249
おろ	-8250
はし	-8251
外で	-8252
損傷	-8253
正規	-8254
気軽	-8255
永久	-8256
が成立	-8257
ゴルフ	-8258
センス	-8259
絶えず	-8260
を強	-8261
を遂	-8262
ラッ	-8263
レル	-8264
勧め	-8265
爆弾	-8266
講義	-8267
月より	-8268
終わる	-8269
こん	-8270
さき	-8271
ニキ	-8272
井戸	-8273
号は	-8274
少な	-8275
渡辺	-8276
騎兵	-8277
パッケ	-8278
した上で	-8279
ディズニー	-8280
コンクリート	-8281
)6	-8282
)』	-8283
継が	-8284
ワシントン	-8285
ドキ	-8286
リラ	-8287
幸い	-8288
▁東京	-8289
学んだ	-8290
要するに	-8291
をま	-8292
余儀	-8293
ate	-8294
たぶん	-8295
千葉県	-8296
帝国の	-8297
選択肢	-8298
タレント	-8299
っていました	-8300
ソビ	-8301
北京	-8302
藩主	-8303
酸素	-8304
は日本	-8305
家から	-8306
などでは	-8307
一旦	-8308
富山	-8309
操縦	-8310
肉体	-8311
～～	-8312
せめて	-8313
とも思	-8314
ませて	-8315
冷たい	-8316
施設の	-8317
TR	-8318
の歌	-8319
先端	-8320
闘争	-8321
仕事の	-8322
直後に	-8323
窓から	-8324
のメンバー	-8325
ツー	-8326
ネオ	-8327
保有	-8328
全面	-8329
掘り	-8330
町は	-8331
管轄	-8332
のかも知	-8333
何らかの	-8334
パッケージ	-8335
1)	-8336
ES	-8337
創立	-8338
名乗	-8339
幼少	-8340
▁13	-8341
するのに	-8342
ことはなかった	-8343
こみ	-8344
佐々	-8345
個体	-8346
出張	-8347
年末	-8348
数年	-8349
の上の	-8350
問題が	-8351
1980	-8352
ED	-8353
衣装	-8354
髪を	-8355
ボーイ	-8356
子供を	-8357
忙しい	-8358
誰にも	-8359
でもなく	-8360
を見せた	-8361
残っている	-8362
ジム	-8363
倫理	-8364
控え	-8365
温度	-8366
爆撃	-8367
の方で	-8368
を示した	-8369
ロケット	-8370
▁-▁19	-8371
しで	-8372
原理	-8373
車に	-8374
の一環	-8375
云つた	-8376
おかしい	-8377
にあって	-8378
スペシャル	-8379
CP	-8380
UR	-8381
▁バ	-8382
三つ	-8383
正月	-8384
を導入	-8385
どこから	-8386
使用する	-8387
放置	-8388
船が	-8389
雨漏	-8390
のかと	-8391
ラーは	-8392
上から	-8393
人々が	-8394
自然の	-8395
のだろうか	-8396
を引き起こ	-8397
In	-8398
しつ	-8399
同志	-8400
少将	-8401
法則	-8402
に移籍	-8403
事前に	-8404
現れた	-8405
近所の	-8406
ぐら	-8407
カム	-8408
コレ	-8409
メタ	-8410
乍ら	-8411
済む	-8412
進化	-8413
この間	-8414
ほどに	-8415
わしは	-8416
プロ野球	-8417
モーター	-8418
、2005	-8419
が強	-8420
付属	-8421
気も	-8422
等で	-8423
ノース	-8424
してしま	-8425
わたくしは	-8426
とこ	-8427
冬の	-8428
太夫	-8429
幽霊	-8430
往復	-8431
数値	-8432
欧米	-8433
インチ	-8434
デート	-8435
74	-8436
ep	-8437
をめ	-8438
んじ	-8439
好意	-8440
学ぶ	-8441
戦は	-8442
招待	-8443
未満	-8444
痛い	-8445
頭皮	-8446
が来た	-8447
をしたり	-8448
おま	-8449
▁あの	-8450
ままに	-8451
天皇の	-8452
東日本	-8453
どちらも	-8454
81	-8455
ひび	-8456
二百	-8457
初心	-8458
雨の	-8459
www	-8460
しさを	-8461
の人生	-8462
るとき	-8463
を書く	-8464
サイン	-8465
ボート	-8466
戻って	-8467
hone	-8468
ではないが	-8469
セリ	-8470
宮廷	-8471
確率	-8472
周辺の	-8473
回目の	-8474
理由に	-8475
言つた	-8476
ますから	-8477
(2	-8478
土産	-8479
寝て	-8480
真の	-8481
の方を	-8482
ージュ	-8483
八五郎	-8484
普通に	-8485
が見える	-8486
を利用して	-8487
告白	-8488
委託	-8489
ive	-8490
されず	-8491
困った	-8492
方には	-8493
残りの	-8494
ドライブ	-8495
パーティー	-8496
▁●	-8497
校長	-8498
洋服	-8499
行を	-8500
行列	-8501
。11	-8502
ガード	-8503
ユーロ	-8504
朝から	-8505
アメリカン	-8506
が集	-8507
に先	-8508
原発	-8509
武田	-8510
TBS	-8511
を目的	-8512
ハンガ	-8513
活動の	-8514
)9	-8515
はん	-8516
吉が	-8517
太子	-8518
山脈	-8519
接近	-8520
略称	-8521
規格	-8522
離脱	-8523
歴史的	-8524
継いだ	-8525
落した	-8526
を感じた	-8527
をしっかり	-8528
をリリース	-8529
71	-8530
▁*	-8531
青森	-8532
ill	-8533
まえて	-8534
82	-8535
が加	-8536
の金	-8537
を築	-8538
並ぶ	-8539
去る	-8540
太刀	-8541
意気	-8542
発射	-8543
皮肉	-8544
雪の	-8545
その一	-8546
見えて	-8547
という話	-8548
、2014	-8549
を発表した	-8550
バラエティ	-8551
三重	-8552
有り	-8553
触れ	-8554
財団	-8555
馬を	-8556
鳥の	-8557
立てた	-8558
んなさい	-8559
書いてある	-8560
であったため	-8561
することにより	-8562
▁formula	-8563
を聴	-8564
ズに	-8565
トヨ	-8566
宮殿	-8567
捕虜	-8568
みたら	-8569
当初の	-8570
YouTub	-8571
められている	-8572
調理	-8573
その辺	-8574
をもら	-8575
んだね	-8576
マスク	-8577
さび	-8578
必然	-8579
繋が	-8580
と判断	-8581
ポンド	-8582
ラント	-8583
裁判所	-8584
選手の	-8585
タンパク質	-8586
93	-8587
▁.	-8588
▁手	-8589
おの	-8590
がみ	-8591
八幡	-8592
処刑	-8593
味方	-8594
正義	-8595
用途	-8596
通過	-8597
騎士	-8598
▁僕は	-8599
を描く	-8600
ツール	-8601
マット	-8602
上って	-8603
老人は	-8604
コミック	-8605
上野	-8606
屋で	-8607
講座	-8608
身分	-8609
さんで	-8610
どおり	-8611
にかけ	-8612
の言葉	-8613
埼玉県	-8614
年度の	-8615
あっても	-8616
と語った	-8617
料を	-8618
を切り	-8619
エステ	-8620
ゲート	-8621
を感じる	-8622
。2010	-8623
ぢやないか	-8624
がございます	-8625
でありました	-8626
OL	-8627
十三	-8628
十四	-8629
次ぐ	-8630
秩序	-8631
率いて	-8632
と云った	-8633
サイトの	-8634
ところから	-8635
はもちろん	-8636
国を	-8637
大の	-8638
子孫	-8639
コロン	-8640
ースの	-8641
人気を	-8642
語った	-8643
お嬢	-8644
アピ	-8645
苦笑	-8646
▁いや	-8647
と指摘	-8648
ゴールド	-8649
言われて	-8650
にとっても	-8651
なう	-8652
ふく	-8653
動機	-8654
新人	-8655
横に	-8656
茶を	-8657
出来事	-8658
定める	-8659
段階で	-8660
に対しても	-8661
チャレンジ	-8662
していますが	-8663
ワールドカップ	-8664
WA	-8665
、」	-8666
けい	-8667
二の	-8668
客の	-8669
草の	-8670
部分の	-8671
どれだけ	-8672
伝統的な	-8673
ものですが	-8674
パーセント	-8675
しているため	-8676
すい	-8677
は同	-8678
を外	-8679
業の	-8680
補給	-8681
ジュール	-8682
合わない	-8683
?、	-8684
ビリ	-8685
厚生	-8686
療法	-8687
箇所	-8688
行は	-8689
関心	-8690
まると	-8691
ラリー	-8692
兵庫県	-8693
多様な	-8694
現在も	-8695
ソビエト	-8696
させている	-8697
教養	-8698
文部	-8699
書に	-8700
渡し	-8701
焼け	-8702
プール	-8703
指導者	-8704
コンテンツ	-8705
建設された	-8706
でありながら	-8707
漢字	-8708
薄毛	-8709
踊り	-8710
ジャケット	-8711
することになる	-8712
されるようになった	-8713
味が	-8714
議席	-8715
降伏	-8716
の一般	-8717
業者が	-8718
レーベル	-8719
メートルの	-8720
りし	-8721
十七	-8722
椅子	-8723
ホット	-8724
流れる	-8725
2001	-8726
io	-8727
に集	-8728
上陸	-8729
提携	-8730
朝廷	-8731
洗い	-8732
若し	-8733
our	-8734
がいた	-8735
駆逐艦	-8736
死去した	-8737
そしてその	-8738
かぬ	-8739
に興味	-8740
を支持	-8741
イオン	-8742
彼等は	-8743
もしない	-8744
余儀なく	-8745
Ch	-8746
マグ	-8747
謝罪	-8748
々たる	-8749
時間帯	-8750
確かな	-8751
試合に	-8752
何となく	-8753
つぎ	-8754
やし	-8755
エフ	-8756
即位	-8757
島に	-8758
形は	-8759
提出	-8760
毎回	-8761
雪が	-8762
友人の	-8763
間には	-8764
功績	-8765
色で	-8766
軍団	-8767
開設	-8768
ity	-8769
フォル	-8770
まもなく	-8771
しているという	-8772
睡眠	-8773
近くに	-8774
連続で	-8775
▁それに	-8776
々として	-8777
居り	-8778
炭素	-8779
署名	-8780
選ぶ	-8781
ook	-8782
に反対	-8783
主要な	-8784
強力な	-8785
試合で	-8786
われない	-8787
サイクル	-8788
られています	-8789
コム	-8790
ナポ	-8791
十九	-8792
守護	-8793
辛い	-8794
▁by	-8795
を満た	-8796
専門家	-8797
かわいい	-8798
くれました	-8799
Windows	-8800
したものである	-8801
使用されている	-8802
気は	-8803
街の	-8804
の上へ	-8805
作家の	-8806
食事を	-8807
それには	-8808
を与えて	-8809
やってきた	-8810
ぐり	-8811
保健	-8812
少々	-8813
燃え	-8814
稲田	-8815
▁では	-8816
の自由	-8817
GA	-8818
が重	-8819
海に	-8820
王子	-8821
過剰	-8822
につく	-8823
の変化	-8824
コラボ	-8825
女の子	-8826
▁やがて	-8827
ばかりに	-8828
、2016	-8829
さなかった	-8830
クリニック	-8831
ての	-8832
劇団	-8833
安打	-8834
帰宅	-8835
読者	-8836
お客様	-8837
を確認	-8838
リーム	-8839
いいのか	-8840
レンタル	-8841
そのために	-8842
書かれている	-8843
も出	-8844
モル	-8845
有利	-8846
期は	-8847
)11	-8848
立てる	-8849
こちらは	-8850
ませんか	-8851
語っている	-8852
▁Y	-8853
▁北	-8854
にい	-8855
シリ	-8856
平方	-8857
気象	-8858
INE	-8859
たちと	-8860
世の中	-8861
仕事が	-8862
大きさ	-8863
情報が	-8864
2003	-8865
して居る	-8866
と呼ばれ	-8867
に比べて	-8868
アナウンサー	-8869
-4	-8870
84	-8871
DS	-8872
ry	-8873
皆様	-8874
財布	-8875
スピー	-8876
と考える	-8877
エキ	-8878
250	-8879
の一種	-8880
をよく	-8881
トルコ	-8882
身体を	-8883
しょうか	-8884
をとって	-8885
ジャパン	-8886
HO	-8887
▁g	-8888
が目	-8889
たれ	-8890
を断	-8891
レシ	-8892
うまい	-8893
めたが	-8894
働いて	-8895
内では	-8896
少年の	-8897
思いつ	-8898
潜水艦	-8899
対照	-8900
山を	-8901
戦車	-8902
格闘	-8903
紳士	-8904
維新	-8905
老人	-8906
軽減	-8907
-10	-8908
▁まだ	-8909
この一	-8910
ジュー	-8911
一般の	-8912
喜んで	-8913
、2020	-8914
▁◆	-8915
シロ	-8916
ポロ	-8917
五六	-8918
収納	-8919
家康	-8920
店に	-8921
循環	-8922
権力	-8923
浴衣	-8924
せられ	-8925
を参照	-8926
ジアム	-8927
ボラン	-8928
博士の	-8929
自分自身	-8930
▁ミ	-8931
之を	-8932
五百	-8933
のを見	-8934
ペース	-8935
忘れた	-8936
さうして	-8937
ンと	-8938
屋に	-8939
経由	-8940
どこへ	-8941
シェル	-8942
ロボット	-8943
○○	-8944
こま	-8945
渡り	-8946
相応	-8947
風邪	-8948
end	-8949
が良い	-8950
を迎えた	-8951
のね	-8952
カス	-8953
収穫	-8954
用品	-8955
ならん	-8956
プレス	-8957
政府が	-8958
のほうが	-8959
は中	-8960
直す	-8961
肖像	-8962
返事	-8963
ゼルス	-8964
▁これらの	-8965
(3	-8966
地理	-8967
御覧	-8968
戦艦	-8969
王は	-8970
と呼び	-8971
先ほど	-8972
▁しかも	-8973
かつての	-8974
されていて	-8975
同じような	-8976
自分たちの	-8977
▁パ	-8978
カニ	-8979
鳴り	-8980
ast	-8981
、、、	-8982
なぜか	-8983
退した	-8984
難しく	-8985
かのように	-8986
医薬	-8987
漸く	-8988
現存	-8989
笑ひ	-8990
▁投稿	-8991
に指定	-8992
ましく	-8993
たかった	-8994
とは異なり	-8995
リバ	-8996
三角	-8997
典型	-8998
南西	-8999
外へ	-9000
客が	-9001
通し	-9002
を作成	-9003
大切な	-9004
簡単な	-9005
部屋に	-9006
といけない	-9007
になったら	-9008
もや	-9009
を飾	-9010
容疑	-9011
山が	-9012
書記	-9013
産の	-9014
の使用	-9015
エンド	-9016
年後の	-9017
科学的	-9018
落ちる	-9019
ダニ	-9020
一九	-9021
愛の	-9022
河川	-9023
砂糖	-9024
飲食	-9025
だいぶ	-9026
にしか	-9027
の間で	-9028
ブラウ	-9029
情報の	-9030
▁自分の	-9031
とすると	-9032
▁2005	-9033
わけですが	-9034
MC	-9035
合同	-9036
国防	-9037
瀬戸	-9038
隠し	-9039
サロン	-9040
バード	-9041
一般的	-9042
厳しく	-9043
られたが	-9044
と言っても	-9045
を中心とした	-9046
EL	-9047
▁&	-9048
ズと	-9049
古墳	-9050
国土	-9051
対処	-9052
眼に	-9053
連結	-9054
養成	-9055
なかで	-9056
はれた	-9057
ヤマト	-9058
上手く	-9059
できれば	-9060
ボックス	-9061
年代後半	-9062
が多	-9063
コア	-9064
乞食	-9065
文を	-9066
白の	-9067
逆転	-9068
騒動	-9069
特殊な	-9070
返事を	-9071
2022	-9072
わね	-9073
受信	-9074
池田	-9075
脅威	-9076
船は	-9077
郡の	-9078
隠居	-9079
に相当	-9080
幼稚園	-9081
返した	-9082
おもしろ	-9083
ロシアの	-9084
。2009	-9085
79	-9086
ud	-9087
ハロ	-9088
反射	-9089
味噌	-9090
商品の	-9091
国家の	-9092
将来の	-9093
グラフィ	-9094
を促	-9095
下は	-9096
▁現在	-9097
スロー	-9098
分から	-9099
ずいぶん	-9100
チェンジ	-9101
ヘンリー	-9102
、2017	-9103
もありません	-9104
めば	-9105
三菱	-9106
布団	-9107
薬を	-9108
にも関	-9109
今日も	-9110
言うと	-9111
独立した	-9112
してもらう	-9113
のかもしれない	-9114
全身	-9115
家具	-9116
必須	-9117
おかげ	-9118
以外は	-9119
くまでも	-9120
Twitter	-9121
オーディション	-9122
らる	-9123
今年	-9124
薬剤師	-9125
。2008	-9126
あゝ	-9127
天才	-9128
文の	-9129
若者	-9130
務大臣	-9131
はずです	-9132
などという	-9133
を要	-9134
チル	-9135
攻め	-9136
生は	-9137
per	-9138
から一	-9139
わたり	-9140
フロー	-9141
が少ない	-9142
委員会の	-9143
にま	-9144
ガリ	-9145
二年	-9146
太い	-9147
姿は	-9148
店を	-9149
権威	-9150
衛生	-9151
閉じ	-9152
ost	-9153
バッハ	-9154
伝えた	-9155
言つて	-9156
ったので	-9157
ヒーロー	-9158
だったため	-9159
グランプリ	-9160
気になって	-9161
))	-9162
ワル	-9163
後継	-9164
相対	-9165
試み	-9166
の良い	-9167
めました	-9168
変わらず	-9169
完成した	-9170
07	-9171
▁近	-9172
ニッ	-9173
ネコ	-9174
数百	-9175
最多	-9176
訴え	-9177
を必要	-9178
イラン	-9179
人気が	-9180
効果を	-9181
から出て	-9182
ゲームの	-9183
言われた	-9184
存在しない	-9185
っていたので	-9186
こともあります	-9187
公認	-9188
合唱	-9189
座席	-9190
暑い	-9191
に住む	-9192
幅広い	-9193
放送の	-9194
行かない	-9195
そうである	-9196
に参加した	-9197
クリスマス	-9198
グループの	-9199
と考えている	-9200
にふ	-9201
を巡	-9202
下手	-9203
種は	-9204
谷の	-9205
、14	-9206
しゅう	-9207
全員が	-9208
過ごす	-9209
衆議院議員	-9210
UE	-9211
何と	-9212
罪を	-9213
▁明治	-9214
してた	-9215
なにも	-9216
レオン	-9217
、2015	-9218
国で	-9219
繁殖	-9220
さえも	-9221
ヴィー	-9222
決めた	-9223
起こった	-9224
、2018	-9225
変わらない	-9226
と思うのですが	-9227
『』	-9228
かか	-9229
を頼	-9230
ツと	-9231
創刊	-9232
器の	-9233
最小	-9234
面が	-9235
▁Ch	-9236
るから	-9237
次郎は	-9238
参加した	-9239
ML	-9240
は約	-9241
北西	-9242
寺院	-9243
物で	-9244
町で	-9245
周囲の	-9246
遺伝子	-9247
院議員	-9248
マーケット	-9249
かも知れません	-9250
なア	-9251
をよ	-9252
リヒ	-9253
不快	-9254
出の	-9255
反発	-9256
通行	-9257
(▁́	-9258
▁まあ	-9259
▁今日は	-9260
はないが	-9261
少数	-9262
歓迎	-9263
親の	-9264
ハワイ	-9265
丁寧に	-9266
学者の	-9267
逃げて	-9268
TA	-9269
へえ	-9270
実用	-9271
損失	-9272
臭い	-9273
複合	-9274
なると	-9275
ソニー	-9276
二人が	-9277
ようにも	-9278
どうしよう	-9279
みたいです	-9280
ストリート	-9281
▁無	-9282
むず	-9283
診療	-9284
ランドの	-9285
似ている	-9286
ことはできない	-9287
を観	-9288
レジ	-9289
伝承	-9290
校の	-9291
海洋	-9292
lay	-9293
を通過	-9294
出来て	-9295
海軍の	-9296
直ぐに	-9297
おっしゃ	-9298
中間	-9299
口が	-9300
融合	-9301
調和	-9302
車体	-9303
違法	-9304
する事	-9305
だして	-9306
に掲載	-9307
よほど	-9308
ピンク	-9309
ブレイ	-9310
事業の	-9311
はだ	-9312
は高	-9313
川が	-9314
松の	-9315
活発	-9316
足で	-9317
限の	-9318
キット	-9319
貴重な	-9320
を入れて	-9321
、2019	-9322
ss	-9323
▁a	-9324
ふし	-9325
混雑	-9326
稼ぎ	-9327
空に	-9328
紛争	-9329
達に	-9330
国内の	-9331
ポルトガル	-9332
ピエ	-9333
疲労	-9334
省の	-9335
装着	-9336
見当	-9337
おいた	-9338
さまは	-9339
ぢやない	-9340
タクシー	-9341
IA	-9342
屋へ	-9343
授与	-9344
統制	-9345
解体	-9346
▁23	-9347
しゃべ	-9348
イルス	-9349
ルーム	-9350
▁日本の	-9351
あくまで	-9352
エンター	-9353
江戸時代	-9354
少なくない	-9355
となりました	-9356
リリースされた	-9357
ようになっている	-9358
SD	-9359
ばた	-9360
債務	-9361
層の	-9362
福井	-9363
まする	-9364
プロダ	-9365
ーンズ	-9366
に関わる	-9367
▁2022	-9368
02	-9369
「(	-9370
の正	-9371
ハマ	-9372
先刻	-9373
暗殺	-9374
泣く	-9375
SNS	-9376
ジェル	-9377
2002	-9378
その中で	-9379
プローチ	-9380
クタ	-9381
審議	-9382
待つ	-9383
教皇	-9384
被災	-9385
養子	-9386
に移動	-9387
を見つ	-9388
したのが	-9389
システムの	-9390
座の	-9391
業績	-9392
職場	-9393
にすぎ	-9394
専用の	-9395
と答えた	-9396
に於ける	-9397
込まれて	-9398
がないので	-9399
アニメーション	-9400
08	-9401
に携	-9402
スミ	-9403
何ん	-9404
周波	-9405
施策	-9406
発足	-9407
やつて	-9408
事実を	-9409
大変な	-9410
ひとりで	-9411
ざるを得ない	-9412
こぼ	-9413
に包	-9414
兵隊	-9415
十年	-9416
室内	-9417
数日	-9418
明か	-9419
生存	-9420
生成	-9421
起源	-9422
仕事は	-9423
活性化	-9424
ある程度	-9425
スイッチ	-9426
、2004	-9427
なければならぬ	-9428
KO	-9429
まア	-9430
を切	-9431
在学	-9432
在庫	-9433
甲板	-9434
つくり	-9435
に分類	-9436
市民の	-9437
詳しい	-9438
駅から	-9439
どうにも	-9440
ナンバー	-9441
頑張って	-9442
じい	-9443
昔は	-9444
空想	-9445
詩人	-9446
飼い	-9447
の大半	-9448
危険な	-9449
大震災	-9450
防御率	-9451
のおかげ	-9452
置かれた	-9453
▁ちょっと	-9454
アルバイト	-9455
BM	-9456
iv	-9457
アト	-9458
専攻	-9459
肌の	-9460
肯定	-9461
にこの	-9462
ドキュ	-9463
ビック	-9464
一つは	-9465
場合の	-9466
綺麗な	-9467
レーター	-9468
IR	-9469
かま	-9470
すべ	-9471
変換	-9472
男爵	-9473
鑑定	-9474
くとも	-9475
せいで	-9476
にもう	-9477
様子が	-9478
はあまり	-9479
ファースト	-9480
ショッピング	-9481
れな	-9482
一と	-9483
和田	-9484
天使	-9485
比例	-9486
浮き	-9487
縮小	-9488
花が	-9489
っていますが	-9490
コレクション	-9491
しず	-9492
コト	-9493
ヨン	-9494
並び	-9495
決心	-9496
るもの	-9497
エリザ	-9498
ドルの	-9499
並べて	-9500
変わる	-9501
最近の	-9502
果して	-9503
行こう	-9504
いつの間	-9505
それより	-9506
を見せる	-9507
開発された	-9508
スウェーデン	-9509
▁下	-9510
に追	-9511
のカ	-9512
の頭	-9513
を交	-9514
司教	-9515
地位	-9516
壁に	-9517
標高	-9518
軍隊	-9519
金で	-9520
駕籠	-9521
たいて	-9522
わずに	-9523
ズムの	-9524
ロイヤ	-9525
云つて	-9526
助けて	-9527
いでいる	-9528
をすると	-9529
、2013	-9530
まれている	-9531
を獲得した	-9532
フランシスコ	-9533
ご飯	-9534
は小	-9535
到底	-9536
役所	-9537
木が	-9538
聖書	-9539
要件	-9540
配合	-9541
インの	-9542
チョコ	-9543
バレー	-9544
不安定	-9545
たまたま	-9546
とすれば	-9547
▁2021	-9548
かなければならない	-9549
司馬	-9550
教徒	-9551
開放	-9552
▁22	-9553
を確保	-9554
ピスト	-9555
方法を	-9556
次々と	-9557
著しく	-9558
驚いて	-9559
ディレク	-9560
致します	-9561
というわけ	-9562
になりたい	-9563
テレビドラマ	-9564
が良	-9565
プチ	-9566
一向	-9567
祭り	-9568
るのが	-9569
ライター	-9570
数多くの	-9571
。2007	-9572
▁l	-9573
公の	-9574
収益	-9575
祖母	-9576
薬の	-9577
のみが	-9578
のみの	-9579
不可欠	-9580
トランプ	-9581
をしながら	-9582
収録されている	-9583
▁X	-9584
が届	-9585
トマ	-9586
上位	-9587
会い	-9588
征服	-9589
応募	-9590
水素	-9591
申す	-9592
移民	-9593
親友	-9594
認可	-9595
リンの	-9596
レディ	-9597
人生の	-9598
月二十	-9599
現れる	-9600
えながら	-9601
を失った	-9602
描かれた	-9603
観点から	-9604
したもので	-9605
に過ぎない	-9606
83	-9607
たか	-9608
ロイ	-9609
了承	-9610
二郎	-9611
修復	-9612
来い	-9613
を着て	-9614
ビール	-9615
方法は	-9616
走って	-9617
しきりに	-9618
しそうに	-9619
を見つける	-9620
ロサンゼルス	-9621
)(	-9622
てん	-9623
代替	-9624
会が	-9625
庭の	-9626
有難	-9627
を結成	-9628
落とし	-9629
した結果	-9630
のとおり	-9631
子どもの	-9632
。2012	-9633
ダウンロード	-9634
で敗	-9635
を施	-9636
住み	-9637
四五	-9638
度々	-9639
思ふ	-9640
男に	-9641
空襲	-9642
自社	-9643
金銭	-9644
れども	-9645
事実上	-9646
アイデア	-9647
ラーメン	-9648
人もいる	-9649
なんですけど	-9650
しゅ	-9651
ボタ	-9652
三は	-9653
上京	-9654
毎に	-9655
特許	-9656
的の	-9657
一度も	-9658
モンゴル	-9659
ろうとする	-9660
いつの間にか	-9661
するためには	-9662
.9	-9663
仮に	-9664
区分	-9665
呼称	-9666
バスの	-9667
過去に	-9668
マスコミ	-9669
であること	-9670
▁このような	-9671
を行っていた	-9672
じゃありませんか	-9673
SA	-9674
と題	-9675
めき	-9676
私と	-9677
んだな	-9678
ソウル	-9679
フード	-9680
今年は	-9681
何とも	-9682
▁それを	-9683
れました	-9684
シナリオ	-9685
基本的には	-9686
05	-9687
くわ	-9688
ちよ	-9689
ウイ	-9690
右の	-9691
歯科	-9692
眼の	-9693
賠償	-9694
ジャズ	-9695
以上は	-9696
時間も	-9697
IG	-9698
分裂	-9699
天文	-9700
室で	-9701
工学	-9702
物資	-9703
補償	-9704
、▁「	-9705
ックは	-9706
起こる	-9707
PR	-9708
te	-9709
ナビ	-9710
余計	-9711
対抗	-9712
甘い	-9713
のいい	-9714
イラク	-9715
制度の	-9716
同士の	-9717
建物の	-9718
福岡県	-9719
しかなく	-9720
エーション	-9721
込んでいる	-9722
うむ	-9723
を誘	-9724
の一つである	-9725
いそ	-9726
主は	-9727
半年	-9728
台風	-9729
本線	-9730
職務	-9731
身は	-9732
関与	-9733
飼育	-9734
アイス	-9735
チュア	-9736
内容の	-9737
正確な	-9738
くなっている	-9739
にた	-9740
を設	-9741
中へ	-9742
噛み	-9743
岸の	-9744
羽織	-9745
表明	-9746
とでも	-9747
テッド	-9748
個々の	-9749
向けに	-9750
文化財	-9751
員として	-9752
シーズンの	-9753
採用された	-9754
ew	-9755
▁東	-9756
八は	-9757
当り	-9758
描く	-9759
発信	-9760
知の	-9761
かじめ	-9762
すぎた	-9763
モール	-9764
早稲田	-9765
流れて	-9766
言葉が	-9767
キャスト	-9768
込まれる	-9769
06	-9770
シミ	-9771
口で	-9772
DNA	-9773
文化の	-9774
調子で	-9775
買い物	-9776
5000	-9777
それまでの	-9778
ほうがいい	-9779
中将	-9780
悪化	-9781
毎月	-9782
ナチュ	-9783
ビート	-9784
外から	-9785
数々の	-9786
を買って	-9787
キャッチ	-9788
を見ながら	-9789
世界選手権	-9790
することとなった	-9791
のぼ	-9792
みと	-9793
ゴリ	-9794
ビタ	-9795
呼ぶ	-9796
攻略	-9797
本件	-9798
構え	-9799
船を	-9800
薩摩	-9801
証券	-9802
重ね	-9803
黄金	-9804
――。	-9805
、13	-9806
グラム	-9807
を読んで	-9808
きっかけに	-9809
それにしても	-9810
さつ	-9811
みや	-9812
エラ	-9813
チア	-9814
ボス	-9815
伊豆	-9816
同社	-9817
大佐	-9818
成る	-9819
色彩	-9820
足利	-9821
のには	-9822
を構成	-9823
フィア	-9824
会社が	-9825
直して	-9826
▁それで	-9827
マイケル	-9828
リーグの	-9829
01	-9830
かへ	-9831
ごう	-9832
工作	-9833
混ぜ	-9834
熱心	-9835
▁私も	-9836
スイス	-9837
動物の	-9838
或いは	-9839
捨てる	-9840
目的で	-9841
マックス	-9842
▁リフォーム	-9843
射撃	-9844
店は	-9845
河内	-9846
波の	-9847
部品	-9848
が起き	-9849
とみな	-9850
を図る	-9851
合いが	-9852
独特の	-9853
鉄道の	-9854
ment	-9855
ればいい	-9856
があるため	-9857
ほんとうに	-9858
なくてはならない	-9859
が手	-9860
マの	-9861
孤独	-9862
新鮮	-9863
検察	-9864
たれた	-9865
以来の	-9866
選手が	-9867
ぐらいの	-9868
ジェット	-9869
までもなく	-9870
が与	-9871
こい	-9872
こむ	-9873
りん	-9874
ノロ	-9875
夢中	-9876
歌の	-9877
突入	-9878
飛ぶ	-9879
に対抗	-9880
クラウ	-9881
殆んど	-9882
ならでは	-9883
データを	-9884
ブラウン	-9885
03	-9886
FL	-9887
サク	-9888
原は	-9889
平野	-9890
細工	-9891
腰を	-9892
関節	-9893
示した	-9894
行つて	-9895
ジャンル	-9896
当たり前	-9897
といいます	-9898
ございますが	-9899
コウ	-9900
ツは	-9901
フが	-9902
制約	-9903
平は	-9904
形を	-9905
浸透	-9906
)、「	-9907
各地の	-9908
相手は	-9909
。2014	-9910
ことができない	-9911
OC	-9912
岡田	-9913
現に	-9914
紅葉	-9915
解除	-9916
語は	-9917
で優勝	-9918
を取り戻	-9919
を書いた	-9920
主として	-9921
具体的に	-9922
、1990	-9923
あらかじめ	-9924
されたため	-9925
個人的には	-9926
▁出	-9927
▁四	-9928
ノイ	-9929
店が	-9930
耳に	-9931
調達	-9932
食材	-9933
高価	-9934
つたが	-9935
副作用	-9936
好きで	-9937
▁彼女は	-9938
ファンタ	-9939
であろうか	-9940
いじ	-9941
の仕	-9942
タリ	-9943
ブの	-9944
修行	-9945
先を	-9946
実業	-9947
近郊	-9948
遅れ	-9949
なんの	-9950
カレー	-9951
パネル	-9952
世界で	-9953
多くが	-9954
携帯電話	-9955
デンマーク	-9956
思っている	-9957
▁西	-9958
ビュ	-9959
三百	-9960
初頭	-9961
昨年	-9962
絶望	-9963
退屈	-9964
ガイド	-9965
何にも	-9966
全体を	-9967
▁今回の	-9968
スポンサー	-9969
バスケット	-9970
合っている	-9971
SF	-9972
ピュ	-9973
会談	-9974
放映	-9975
▁21	-9976
が見え	-9977
彼等の	-9978
したとき	-9979
ファミリー	-9980
ねん	-9981
を仕	-9982
ノウ	-9983
ロの	-9984
影が	-9985
応用	-9986
疑い	-9987
血の	-9988
連中	-9989
しから	-9990
人物の	-9991
期には	-9992
いくらか	-9993
アレンジ	-9994
ケーブル	-9995
クラシック	-9996
さや	-9997
何人	-9998
完璧	-9999
寄付	-10000
日光	-10001
この辺	-10002
を表す	-10003
大なる	-10004
かったが	-10005
されたり	-10006
とも呼ばれる	-10007
天気	-10008
存続	-10009
歴代	-10010
を対象	-10011
得点を	-10012
明るく	-10013
珍しく	-10014
▁Com	-10015
ガンダム	-10016
プラット	-10017
休止	-10018
前作	-10019
登山	-10020
趣旨	-10021
運ぶ	-10022
かせた	-10023
が設け	-10024
ローズ	-10025
下さる	-10026
前述の	-10027
動かす	-10028
たびたび	-10029
に当たる	-10030
やり取り	-10031
、1980	-10032
ことになり	-10033
を喫	-10034
イェ	-10035
他人	-10036
再婚	-10037
捕ら	-10038
栃木	-10039
里の	-10040
ミッド	-10041
させて頂	-10042
っていただ	-10043
HP	-10044
が長	-10045
体で	-10046
城を	-10047
特集	-10048
通知	-10049
電池	-10050
いまだ	-10051
原子力	-10052
くなると	-10053
なぜなら	-10054
してしまい	-10055
やって来た	-10056
ゴールデン	-10057
エンディング	-10058
主婦	-10059
手間	-10060
決議	-10061
海賊	-10062
直線	-10063
進み	-10064
ber	-10065
実際は	-10066
市内の	-10067
ここから	-10068
に沿って	-10069
をつくる	-10070
そんなことは	-10071
ヤク	-10072
レム	-10073
斎藤	-10074
無事	-10075
と対戦	-10076
ゐない	-10077
ベリー	-10078
年生の	-10079
楽しむ	-10080
▁いつも	-10081
ものだと	-10082
▁安	-10083
ガニ	-10084
市販	-10085
年金	-10086
府県	-10087
花を	-10088
もう一	-10089
を理解	-10090
バーン	-10091
方向に	-10092
についた	-10093
を作った	-10094
民主主義	-10095
▁こうした	-10096
でしょうし	-10097
が行われている	-10098
官僚	-10099
照明	-10100
物や	-10101
臨床	-10102
で放送	-10103
はよく	-10104
マリー	-10105
真面目	-10106
言われ	-10107
いてゐる	-10108
。2006	-10109
ができない	-10110
ことが多く	-10111
ことが出来る	-10112
▁h	-10113
▁白	-10114
ポケ	-10115
不要	-10116
尊重	-10117
留学	-10118
重量	-10119
鑑賞	-10120
めちゃ	-10121
ショウ	-10122
デザイ	-10123
協力を	-10124
殺した	-10125
に必要な	-10126
を迎える	-10127
されてしまう	-10128
▁人	-10129
の書	-10130
刀を	-10131
密な	-10132
屋は	-10133
方や	-10134
松平	-10135
航海	-10136
酒の	-10137
と思ひ	-10138
んできた	-10139
チャップ	-10140
例として	-10141
変わった	-10142
ありませんでした	-10143
▁̄	-10144
めず	-10145
キア	-10146
特典	-10147
視覚	-10148
もいい	-10149
無料で	-10150
認めて	-10151
音楽の	-10152
ナメント	-10153
。2011	-10154
されたのは	-10155
に見られる	-10156
YouTube	-10157
つる	-10158
の根	-10159
世を	-10160
客様	-10161
振動	-10162
木戸	-10163
部落	-10164
しさに	-10165
日本が	-10166
が非常に	-10167
ってから	-10168
ジュアル	-10169
生活を送	-10170
自分でも	-10171
SU	-10172
俳句	-10173
妨害	-10174
年が	-10175
本拠	-10176
歌舞	-10177
死骸	-10178
知恵	-10179
秀吉	-10180
結晶	-10181
長に	-10182
700	-10183
トヨタ	-10184
モバイ	-10185
言葉で	-10186
きわめて	-10187
を挙げた	-10188
オーナー	-10189
があるのか	-10190
マツ	-10191
座に	-10192
警告	-10193
ゐると	-10194
プロペ	-10195
結果として	-10196
ボイ	-10197
リク	-10198
戦隊	-10199
敷地	-10200
群の	-10201
通勤	-10202
配送	-10203
ージー	-10204
ミックス	-10205
楽しめる	-10206
していたため	-10207
MP	-10208
に悩	-10209
を逃	-10210
遊ば	-10211
その代	-10212
におき	-10213
あるまい	-10214
サイトで	-10215
さく	-10216
も大	-10217
上海	-10218
回路	-10219
悲劇	-10220
真に	-10221
眼で	-10222
群馬	-10223
ごとの	-10224
に似た	-10225
作って	-10226
側には	-10227
引っ越	-10228
がついて	-10229
ピーター	-10230
単行	-10231
厚い	-10232
掻き	-10233
遊ぶ	-10234
さうな	-10235
さして	-10236
もいる	-10237
シカゴ	-10238
ドラゴン	-10239
主張した	-10240
いただいた	-10241
sh	-10242
を執	-10243
カの	-10244
シの	-10245
同月	-10246
巡洋	-10247
急行	-10248
曹操	-10249
食堂	-10250
▁mm	-10251
つきり	-10252
バッテ	-10253
単純な	-10254
そのもの	-10255
をしたい	-10256
ウィーン	-10257
コンビニ	-10258
そのものが	-10259
依然として	-10260
が減	-10261
んは	-10262
エス	-10263
ゲイ	-10264
制の	-10265
号を	-10266
平安	-10267
施術	-10268
終盤	-10269
めていく	-10270
カレッジ	-10271
フィリップ	-10272
賞を受賞した	-10273
めが	-10274
一定	-10275
人種	-10276
源氏	-10277
繊維	-10278
藩の	-10279
張って	-10280
科大学	-10281
自己の	-10282
にしては	-10283
もつ	-10284
増大	-10285
急ぎ	-10286
読書	-10287
120	-10288
も同じ	-10289
シンガ	-10290
地区の	-10291
をとった	-10292
MO	-10293
並べ	-10294
商標	-10295
審判	-10296
持続	-10297
道が	-10298
はずの	-10299
は不明	-10300
自由な	-10301
1970	-10302
▁それでも	-10303
できました	-10304
にあたって	-10305
に位置する	-10306
エンジニア	-10307
とで	-10308
会を	-10309
蔵の	-10310
貸し	-10311
輪の	-10312
の主要	-10313
を開発	-10314
ジャイ	-10315
ドラム	-10316
ファル	-10317
リアの	-10318
韓国の	-10319
とっても	-10320
と言えば	-10321
チャールズ	-10322
ph	-10323
任命	-10324
夜に	-10325
私鉄	-10326
考察	-10327
開通	-10328
えたり	-10329
全国の	-10330
彼女を	-10331
の上から	-10332
メダルを	-10333
に終わった	-10334
したのである	-10335
んじゃないか	-10336
トウ	-10337
売上	-10338
屋が	-10339
有機	-10340
無論	-10341
討ち	-10342
、30	-10343
。16	-10344
やその	-10345
キレイ	-10346
マルチ	-10347
としたが	-10348
ミサイル	-10349
。2015	-10350
したことは	-10351
なかったので	-10352
もしれません	-10353
を基	-10354
一帯	-10355
円の	-10356
回想	-10357
復讐	-10358
短縮	-10359
薬局	-10360
開拓	-10361
青木	-10362
京都府	-10363
年前の	-10364
思いを	-10365
▁それが	-10366
を立てて	-10367
チームが	-10368
プリング	-10369
CE	-10370
とら	-10371
まぁ	-10372
処置	-10373
場が	-10374
廊下	-10375
柔ら	-10376
流域	-10377
浅草	-10378
遅い	-10379
ナップ	-10380
寂しい	-10381
生活は	-10382
研究科	-10383
取り付け	-10384
契約を結	-10385
選ばれた	-10386
。2018	-10387
つまらない	-10388
として活動	-10389
将校	-10390
年を	-10391
っぷり	-10392
ロイド	-10393
奇妙な	-10394
子供は	-10395
教育の	-10396
ないから	-10397
。2019	-10398
アルコール	-10399
であることは	-10400
▁“	-10401
▁七	-10402
だわ	-10403
手数	-10404
空を	-10405
顕著	-10406
ect	-10407
ord	-10408
どこに	-10409
最優秀	-10410
見たい	-10411
だろうが	-10412
ちっとも	-10413
に向けた	-10414
を残した	-10415
アプローチ	-10416
)「	-10417
個性	-10418
処方	-10419
吐き	-10420
日中	-10421
業を	-10422
総裁	-10423
電灯	-10424
でこの	-10425
ゾーン	-10426
モント	-10427
戦後の	-10428
最近は	-10429
豊富な	-10430
関係者	-10431
飛行機	-10432
が大きい	-10433
さんから	-10434
一貫	-10435
廃棄	-10436
電動	-10437
の人物	-10438
もしか	-10439
を買う	-10440
ランチ	-10441
伝えて	-10442
計画を	-10443
逃げる	-10444
▁今回は	-10445
アパート	-10446
ックスの	-10447
させられた	-10448
フィリピン	-10449
"(	-10450
やあ	-10451
イチ	-10452
有る	-10453
植え	-10454
かしく	-10455
タッグ	-10456
ネシア	-10457
問題に	-10458
けません	-10459
を持たない	-10460
ハンガリー	-10461
れてしまった	-10462
AV	-10463
ah	-10464
子で	-10465
景色	-10466
目も	-10467
馬が	-10468
を申し	-10469
タンク	-10470
地から	-10471
長い間	-10472
いただく	-10473
ox	-10474
▁不	-10475
「」	-10476
へ帰	-10477
北東	-10478
吸い	-10479
年後	-10480
歌い	-10481
金曜	-10482
飾り	-10483
ナルの	-10484
困難な	-10485
ことでしょう	-10486
しているのは	-10487
名に	-10488
幹部	-10489
沈黙	-10490
西武	-10491
ort	-10492
に戻り	-10493
を追い	-10494
セキュ	-10495
マイク	-10496
出すと	-10497
細かく	-10498
訪れた	-10499
けっこう	-10500
になれる	-10501
のを見て	-10502
かと思うと	-10503
っけ	-10504
の全	-10505
挿入	-10506
連勝	-10507
音声	-10508
が実施	-10509
事業を	-10510
毎日の	-10511
申し訳	-10512
エレクト	-10513
東京大学	-10514
気づいた	-10515
シャンプー	-10516
求められる	-10517
ことについて	-10518
というものを	-10519
▁外	-10520
かき	-10521
二日	-10522
兵を	-10523
紙幣	-10524
続編	-10525
要塞	-10526
レシピ	-10527
規模の	-10528
活躍した	-10529
が取	-10530
児の	-10531
忽ち	-10532
恋人	-10533
考案	-10534
青春	-10535
なしで	-10536
もんだ	-10537
既存の	-10538
看護師	-10539
選挙区	-10540
チャード	-10541
あまりにも	-10542
を知らない	-10543
公爵	-10544
園の	-10545
安価	-10546
百合	-10547
端末	-10548
配布	-10549
を認め	-10550
立候補	-10551
という点	-10552
▁2023	-10553
オプション	-10554
聞いていた	-10555
言っている	-10556
あち	-10557
を握	-10558
動員	-10559
掲げ	-10560
案外	-10561
躊躇	-10562
阻止	-10563
その頃	-10564
に進学	-10565
ヴォル	-10566
修道院	-10567
報告書	-10568
悲しみ	-10569
目には	-10570
着物を	-10571
その中に	-10572
ストライ	-10573
ことのない	-10574
▁南	-10575
の面	-10576
みで	-10577
作者	-10578
入社	-10579
彼も	-10580
恰好	-10581
終わ	-10582
雄は	-10583
ore	-10584
いつつ	-10585
の悪い	-10586
わしい	-10587
を投げ	-10588
を経由	-10589
ボタン	-10590
年間に	-10591
するのも	-10592
パーソナ	-10593
オープニング	-10594
09	-10595
戦時	-10596
時半	-10597
男を	-10598
警視	-10599
逃亡	-10600
頭は	-10601
されば	-10602
つて来た	-10603
明らかな	-10604
ゴム	-10605
声明	-10606
火が	-10607
熱い	-10608
肌に	-10609
軍と	-10610
選抜	-10611
音は	-10612
住民の	-10613
太陽光	-10614
と思つた	-10615
のできる	-10616
バランス	-10617
としており	-10618
を見ていた	-10619
テーション	-10620
することなく	-10621
やめ	-10622
再編	-10623
好む	-10624
柔軟	-10625
都道	-10626
gle	-10627
▁よく	-10628
を決定	-10629
何より	-10630
アピール	-10631
ショート	-10632
。2013	-10633
ヌー	-10634
当日	-10635
眼は	-10636
親戚	-10637
学校で	-10638
わずかに	-10639
ウェスト	-10640
しながらも	-10641
▁〜	-10642
一族	-10643
介入	-10644
在住	-10645
実在	-10646
質な	-10647
開き	-10648
須賀	-10649
をあげ	-10650
エース	-10651
中では	-10652
作者の	-10653
迎えた	-10654
って来る	-10655
どうする	-10656
出てくる	-10657
分かって	-10658
終了した	-10659
▁アメリカ	-10660
示している	-10661
今朝	-10662
休暇	-10663
八重	-10664
切手	-10665
巡査	-10666
旅館	-10667
法的	-10668
消し	-10669
直径	-10670
農村	-10671
その人	-10672
ギーの	-10673
高校生	-10674
とりわけ	-10675
バージョ	-10676
とコメント	-10677
歩いている	-10678
04	-10679
すか	-10680
を被	-10681
先行	-10682
古の	-10683
愛称	-10684
論争	-10685
エディ	-10686
メイト	-10687
大会の	-10688
市町村	-10689
話しか	-10690
あたかも	-10691
インタビューで	-10692
Am	-10693
ピカ	-10694
リヤ	-10695
琉球	-10696
瑠璃	-10697
蒸気	-10698
チップ	-10699
パター	-10700
地下鉄	-10701
従業員	-10702
所から	-10703
▁こういう	-10704
ok	-10705
▁神	-10706
きこ	-10707
放棄	-10708
石は	-10709
age	-10710
にあた	-10711
スーツ	-10712
プロイ	-10713
を聞いて	-10714
サーバー	-10715
発生する	-10716
という考え	-10717
ないように	-10718
へ戻	-10719
佐賀	-10720
したる	-10721
ジェン	-10722
生活が	-10723
長野県	-10724
を含めた	-10725
一生懸命	-10726
もあるので	-10727
収録された	-10728
うら	-10729
に参	-10730
を採	-10731
を貰	-10732
オオ	-10733
仮面	-10734
天下	-10735
好奇	-10736
料は	-10737
有力	-10738
鋭い	-10739
Web	-10740
お前が	-10741
まつた	-10742
オイル	-10743
少年は	-10744
注目を	-10745
2023	-10746
も含めて	-10747
サイズの	-10748
位置する	-10749
だったという	-10750
MV	-10751
の葉	-10752
ラノ	-10753
勇気	-10754
多摩	-10755
宮の	-10756
果て	-10757
ian	-10758
いかん	-10759
を用意	-10760
オーケ	-10761
太郎の	-10762
組んだ	-10763
パーティ	-10764
ピックの	-10765
パイロット	-10766
かわからない	-10767
あつ	-10768
てい	-10769
をみ	-10770
侵略	-10771
先は	-10772
役に	-10773
機体	-10774
織田	-10775
からな	-10776
ダード	-10777
マレー	-10778
万ドル	-10779
自然と	-10780
々とした	-10781
えません	-10782
思っていた	-10783
しまっている	-10784
MI	-10785
かみ	-10786
主が	-10787
付く	-10788
侵害	-10789
妻が	-10790
町を	-10791
義理	-10792
跡を	-10793
ピース	-10794
深刻な	-10795
1999	-10796
を書いて	-10797
プレート	-10798
ジェームズ	-10799
▁しかしながら	-10800
をはじめとする	-10801
ベス	-10802
台詞	-10803
官は	-10804
戦術	-10805
抑制	-10806
第四	-10807
苦手	-10808
馳走	-10809
ねえか	-10810
を変更	-10811
協会の	-10812
第一に	-10813
してみて	-10814
フスキー	-10815
かゝ	-10816
の字	-10817
南東	-10818
金沢	-10819
いわば	-10820
月場所	-10821
を開けて	-10822
チェーン	-10823
古くから	-10824
けり	-10825
にゃ	-10826
混合	-10827
どうだ	-10828
クルー	-10829
リップ	-10830
母さん	-10831
繰り広	-10832
気がついた	-10833
行きました	-10834
として知られる	-10835
の強	-10836
ヨハ	-10837
北条	-10838
の間の	-10839
は全く	-10840
参議院	-10841
替える	-10842
答える	-10843
をお願い	-10844
cc	-10845
▁赤	-10846
つな	-10847
の風	-10848
キル	-10849
事な	-10850
会に	-10851
言は	-10852
と見な	-10853
ニキビ	-10854
ントの	-10855
以内に	-10856
文学の	-10857
時間で	-10858
に戻った	-10859
のもとに	-10860
ことが出来	-10861
エンジンの	-10862
ov	-10863
の末	-10864
シス	-10865
元は	-10866
情勢	-10867
支え	-10868
犬の	-10869
異な	-10870
かれは	-10871
バトル	-10872
ワイド	-10873
却って	-10874
昨日の	-10875
ドラフト	-10876
レベルの	-10877
年までに	-10878
ついている	-10879
ボランティア	-10880
......。」	-10881
に不	-10882
ベラ	-10883
周り	-10884
品種	-10885
家と	-10886
を出た	-10887
ストア	-10888
作品に	-10889
3,	-10890
の際	-10891
修了	-10892
宅配	-10893
捜索	-10894
男と	-10895
石が	-10896
適正	-10897
部下	-10898
IFA	-10899
だらけ	-10900
でその	-10901
クトル	-10902
ヤード	-10903
目的は	-10904
スポット	-10905
ローカル	-10906
。2016	-10907
それよりも	-10908
DA	-10909
WE	-10910
_^	-10911
ff	-10912
に努	-10913
商人	-10914
山市	-10915
母に	-10916
造り	-10917
配備	-10918
金利	-10919
int	-10920
ってい	-10921
わしの	-10922
全体が	-10923
頻繁に	-10924
これだけ	-10925
それらを	-10926
・・・。	-10927
出しました	-10928
キロメートル	-10929
ジャーナリスト	-10930
qu	-10931
はア	-10932
三の	-10933
四日	-10934
怒り	-10935
所持	-10936
生理	-10937
身近	-10938
すべく	-10939
バース	-10940
レンス	-10941
会社に	-10942
入りの	-10943
うれしい	-10944
を続けて	-10945
のことである	-10946
もり	-10947
ダの	-10948
味を	-10949
国連	-10950
地点	-10951
天の	-10952
正当	-10953
若手	-10954
重に	-10955
のかい	-10956
の通り	-10957
を考え	-10958
サーク	-10959
家族の	-10960
経済的	-10961
ight	-10962
どこかで	-10963
を進める	-10964
ありがたい	-10965
▁Q	-10966
▁ハ	-10967
ヤリ	-10968
消化	-10969
米の	-10970
脱出	-10971
身長	-10972
パーツ	-10973
メンテ	-10974
ルイス	-10975
新聞の	-10976
方法で	-10977
素敵な	-10978
遊んで	-10979
を始める	-10980
ホテルの	-10981
、1970	-10982
場合がある	-10983
ev	-10984
▁ラ	-10985
が上	-10986
とど	-10987
ヒョ	-10988
僅か	-10989
分か	-10990
士は	-10991
急激	-10992
意欲	-10993
拘束	-10994
贅沢	-10995
造船	-10996
そのお	-10997
を見ても	-10998
を開いて	-10999
、2021	-11000
そうとする	-11001
残念ながら	-11002
となっています	-11003
▁翌	-11004
件の	-11005
意向	-11006
近所	-11007
-19	-11008
を通り	-11009
止めた	-11010
泣いて	-11011
育った	-11012
運んで	-11013
結果的に	-11014
につながる	-11015
の美	-11016
ぼろ	-11017
出力	-11018
分は	-11019
前進	-11020
加え	-11021
本体	-11022
村が	-11023
物も	-11024
礼を	-11025
頭で	-11026
あえて	-11027
そちら	-11028
へ来て	-11029
ジェネ	-11030
世界を	-11031
なります	-11032
オスマン	-11033
ビジョン	-11034
マルクス	-11035
生まれて	-11036
でありますが	-11037
されてしまった	-11038
は三	-11039
五月	-11040
割引	-11041
召し	-11042
実態	-11043
山形	-11044
秘書	-11045
観音	-11046
貧困	-11047
いうと	-11048
と説明	-11049
に移り	-11050
ませう	-11051
を浴び	-11052
一連の	-11053
世紀に	-11054
航空機	-11055
またその	-11056
までには	-11057
今までの	-11058
存在した	-11059
隣接する	-11060
、2003	-11061
ちがいない	-11062
イタリアの	-11063
ちょっとした	-11064
になっていて	-11065
ではありませんが	-11066
▁ド	-11067
に同	-11068
来日	-11069
死な	-11070
石に	-11071
頼む	-11072
を求め	-11073
を立ち	-11074
技術の	-11075
明確に	-11076
登場し	-11077
どうなる	-11078
ましても	-11079
気持ちを	-11080
になるので	-11081
NG	-11082
]。	-11083
テネ	-11084
埋葬	-11085
娘を	-11086
対決	-11087
本土	-11088
河原	-11089
移行	-11090
行方	-11091
近頃	-11092
:30	-11093
らしさ	-11094
屋さん	-11095
かどうかは	-11096
してほしい	-11097
▁ウ	-11098
で初	-11099
ピク	-11100
状に	-11101
理念	-11102
短く	-11103
が違う	-11104
を迎え	-11105
グレイ	-11106
僅かな	-11107
100%	-11108
▁Pro	-11109
この時期	-11110
ブリッジ	-11111
ロイヤル	-11112
ものだから	-11113
▁主	-11114
の無	-11115
人権	-11116
係る	-11117
君も	-11118
大賞	-11119
実装	-11120
手当	-11121
毛の	-11122
着の	-11123
電波	-11124
の戦い	-11125
もとの	-11126
を求めた	-11127
ヴィッド	-11128
書かれて	-11129
らしかった	-11130
帰って来た	-11131
していることを	-11132
OV	-11133
かぶ	-11134
のぞ	-11135
人格	-11136
今や	-11137
入団	-11138
原告	-11139
景観	-11140
気配	-11141
礼拝	-11142
返還	-11143
頼み	-11144
いいか	-11145
を要求	-11146
シェア	-11147
万円の	-11148
歌舞伎	-11149
すべてが	-11150
ところです	-11151
知っていた	-11152
ねばならない	-11153
お茶	-11154
ペイ	-11155
下記	-11156
待て	-11157
徒歩	-11158
海峡	-11159
(10	-11160
といえ	-11161
を検討	-11162
ターが	-11163
惜しい	-11164
愛する	-11165
淋しい	-11166
1996	-11167
をやって	-11168
。2017	-11169
したような	-11170
エンジンを	-11171
モーション	-11172
になってから	-11173
。「......	-11174
▁k	-11175
『"	-11176
出來	-11177
建立	-11178
悪の	-11179
提唱	-11180
を発揮	-11181
を続け	-11182
の可能性	-11183
記者会見	-11184
があっても	-11185
なと	-11186
口臭	-11187
御免	-11188
笑う	-11189
経路	-11190
誠に	-11191
銀河	-11192
にかか	-11193
の位置	-11194
スペン	-11195
日付で	-11196
それこそ	-11197
の一部を	-11198
事がある	-11199
売り上げ	-11200
に行われた	-11201
(7	-11202
がわ	-11203
すき	-11204
社に	-11205
論を	-11206
(12	-11207
ドリヒ	-11208
男性の	-11209
訊いた	-11210
azon	-11211
が異なる	-11212
ファンの	-11213
専門学校	-11214
日本代表	-11215
ためである	-11216
なんだろう	-11217
われており	-11218
気がします	-11219
ステーション	-11220
▁さ	-11221
は全	-11222
健全	-11223
天候	-11224
家臣	-11225
望み	-11226
連覇	-11227
電鉄	-11228
からと	-11229
かわい	-11230
どれも	-11231
如何に	-11232
抜けて	-11233
聞えた	-11234
これには	-11235
と見えて	-11236
▁2000	-11237
に至るまで	-11238
になりますが	-11239
」「............	-11240
ex	-11241
の表	-11242
ヘア	-11243
汚れ	-11244
泥棒	-11245
石炭	-11246
が強い	-11247
プロテ	-11248
プロレ	-11249
教える	-11250
直後の	-11251
ひとりの	-11252
アンケート	-11253
がし	-11254
僧侶	-11255
先で	-11256
冷静	-11257
太田	-11258
生み	-11259
軍人	-11260
は無い	-11261
わせた	-11262
ニール	-11263
地域に	-11264
。「――	-11265
する予定	-11266
を占める	-11267
クラスの	-11268
設置された	-11269
RP	-11270
もろ	-11271
ニョ	-11272
保安	-11273
割れ	-11274
創業	-11275
力も	-11276
師範	-11277
斬り	-11278
絵の	-11279
ack	-11280
にしろ	-11281
価値観	-11282
呼んで	-11283
地域で	-11284
このうち	-11285
やしない	-11286
込んでいた	-11287
使われている	-11288
ばら	-11289
策定	-11290
経費	-11291
蓄積	-11292
ご紹介	-11293
入りを	-11294
食べた	-11295
みんなが	-11296
物である	-11297
私たちが	-11298
がっている	-11299
を担当した	-11300
アプリケーション	-11301
しり	-11302
の数	-11303
細菌	-11304
花嫁	-11305
額を	-11306
あきら	-11307
スキル	-11308
ドルフ	-11309
化粧品	-11310
協議会	-11311
子育て	-11312
抜いて	-11313
私ども	-11314
送って	-11315
集めた	-11316
1998	-11317
ライバル	-11318
こともない	-11319
られません	-11320
▁タ	-11321
シオ	-11322
下旬	-11323
乗車	-11324
介は	-11325
側で	-11326
北の	-11327
家電	-11328
線と	-11329
が担当	-11330
さうに	-11331
ただの	-11332
とくに	-11333
技術を	-11334
本人の	-11335
枚目の	-11336
さらなる	-11337
するのを	-11338
モチーフ	-11339
スタジアム	-11340
トーナメント	-11341
CS	-11342
NT	-11343
儀式	-11344
圧力	-11345
守る	-11346
村に	-11347
松は	-11348
直後	-11349
醤油	-11350
順序	-11351
もよく	-11352
メタル	-11353
わたくし	-11354
がなければ	-11355
に由来する	-11356
おこ	-11357
こく	-11358
ネン	-11359
ブス	-11360
傾斜	-11361
崩れ	-11362
左翼	-11363
戦士	-11364
治安	-11365
神話	-11366
診察	-11367
貨幣	-11368
違和	-11369
人でも	-11370
卒業後	-11371
結果は	-11372
通常は	-11373
だったから	-11374
よそ	-11375
を書	-11376
井は	-11377
声に	-11378
巨大	-11379
春日	-11380
私達	-11381
読売	-11382
から外	-11383
と私は	-11384
を防ぐ	-11385
ソンが	-11386
レイン	-11387
相手を	-11388
聞かせ	-11389
集まり	-11390
のなかで	-11391
oogle	-11392
を使用して	-11393
ことであった	-11394
形に	-11395
発想	-11396
耐え	-11397
長年	-11398
ヤング	-11399
契約を	-11400
患者の	-11401
状態が	-11402
試合の	-11403
部屋へ	-11404
静岡県	-11405
ぴったり	-11406
とは異なる	-11407
者であった	-11408
DD	-11409
〴〵	-11410
が同	-11411
月が	-11412
絶滅	-11413
が来る	-11414
に登録	-11415
に近づ	-11416
バレエ	-11417
大会で	-11418
明日の	-11419
知られ	-11420
年代には	-11421
を使用した	-11422
グローバル	-11423
わけではなく	-11424
プラットフォーム	-11425
かさ	-11426
不審	-11427
四国	-11428
太鼓	-11429
寝る	-11430
生息	-11431
裏の	-11432
試し	-11433
野党	-11434
各地で	-11435
大事な	-11436
と比べて	-11437
をもとに	-11438
地である	-11439
年ぶりに	-11440
穏やかな	-11441
、2022	-11442
第一次世界大戦	-11443
ly	-11444
▁う	-11445
おっ	-11446
刑務	-11447
占い	-11448
性や	-11449
手軽	-11450
自立	-11451
返り	-11452
なりの	-11453
の時代	-11454
飲んだ	-11455
1995	-11456
ッシャー	-11457
ものもある	-11458
立っていた	-11459
開催される	-11460
』)	-11461
ウマ	-11462
人だ	-11463
味の	-11464
支給	-11465
神聖	-11466
けても	-11467
を含め	-11468
LINE	-11469
っとして	-11470
の中にも	-11471
開かれた	-11472
ほとんどが	-11473
レア	-11474
司会	-11475
大名	-11476
抑え	-11477
校舎	-11478
玩具	-11479
移植	-11480
調で	-11481
調節	-11482
▁("	-11483
フェア	-11484
議会の	-11485
集めて	-11486
1960	-11487
ストーン	-11488
▁そのため	-11489
そら	-11490
と小	-11491
の乱	-11492
例は	-11493
声の	-11494
情を	-11495
特急	-11496
遠ざ	-11497
コイン	-11498
東海道	-11499
テキスト	-11500
ラが	-11501
史料	-11502
宜い	-11503
役で	-11504
甲子	-11505
着用	-11506
砲撃	-11507
良さ	-11508
週末	-11509
隊長	-11510
チャイ	-11511
ベンチ	-11512
去年の	-11513
当たる	-11514
老人の	-11515
部には	-11516
テレビで	-11517
地として	-11518
にも関わらず	-11519
の一環として	-11520
オーケストラ	-11521
わば	-11522
セロ	-11523
倉庫	-11524
先日	-11525
免疫	-11526
様を	-11527
火鉢	-11528
▁to	-11529
をもち	-11530
ホント	-11531
合いの	-11532
名前を	-11533
巡洋艦	-11534
支払い	-11535
みられる	-11536
を楽しむ	-11537
スタンド	-11538
人たちが	-11539
(4	-11540
にご	-11541
のあ	-11542
化合	-11543
区画	-11544
敏感	-11545
破産	-11546
▁あと	-11547
。』『	-11548
に復帰	-11549
を押し	-11550
グレー	-11551
世間の	-11552
誰もが	-11553
1997	-11554
でないと	-11555
を感じて	-11556
アルファ	-11557
おりました	-11558
用いられた	-11559
0.	-11560
ガソ	-11561
皇后	-11562
空軍	-11563
おれの	-11564
ぼくは	-11565
を置く	-11566
グラス	-11567
ルトラ	-11568
動いて	-11569
機能を	-11570
自然な	-11571
せられて	-11572
▁2024	-11573
しましては	-11574
ix	-11575
七は	-11576
加圧	-11577
目覚	-11578
詐欺	-11579
骨の	-11580
▁同じ	-11581
でいい	-11582
を除き	-11583
タバコ	-11584
働いた	-11585
誰かが	-11586
しますと	-11587
をしない	-11588
グレード	-11589
キャンセル	-11590
▁ク	-11591
だろ	-11592
の端	-11593
ネズ	-11594
中部	-11595
客は	-11596
形が	-11597
後日	-11598
数千	-11599
月曜	-11600
法師	-11601
蔵は	-11602
ich	-11603
を突き	-11604
ニアの	-11605
し始めた	-11606
みたいで	-11607
。2005	-11608
九郎	-11609
大半	-11610
移住	-11611
落下	-11612
革新	-11613
類は	-11614
▁って	-11615
がして	-11616
同年の	-11617
男性が	-11618
との間で	-11619
と考えた	-11620
ひそかに	-11621
を連れて	-11622
▁ところで	-11623
、2002	-11624
クリーニング	-11625
ということである	-11626
ld	-11627
リッ	-11628
任せ	-11629
広場	-11630
毛利	-11631
ens	-11632
▁次に	-11633
▁結婚	-11634
にせよ	-11635
をかぶ	-11636
イルド	-11637
を変えて	-11638
を超えて	-11639
レポート	-11640
ガタ	-11641
呉れ	-11642
と発言	-11643
会社は	-11644
伝わる	-11645
優しく	-11646
共通の	-11647
効果は	-11648
大量の	-11649
覚えた	-11650
あなたに	-11651
いただき	-11652
わたしが	-11653
動かない	-11654
年代から	-11655
でしょうね	-11656
キャッシュ	-11657
をす	-11658
を深	-11659
を積	-11660
アブ	-11661
リト	-11662
台に	-11663
団は	-11664
平凡	-11665
項目	-11666
風は	-11667
に加入	-11668
を探す	-11669
を説明	-11670
ウスの	-11671
マップ	-11672
太郎が	-11673
の人々は	-11674
シュート	-11675
をもたらす	-11676
認められる	-11677
に角	-11678
むら	-11679
スロ	-11680
帰還	-11681
提灯	-11682
方々	-11683
直面	-11684
近江	-11685
適当	-11686
隠れ	-11687
一度は	-11688
両手を	-11689
先生に	-11690
彼女に	-11691
急速に	-11692
をしても	-11693
テレビの	-11694
ラウンド	-11695
次のように	-11696
ラと	-11697
下駄	-11698
両方	-11699
弦楽	-11700
悲し	-11701
水平	-11702
汽車	-11703
配列	-11704
馬車	-11705
たまに	-11706
に出会	-11707
を重視	-11708
置き換	-11709
英語の	-11710
気持ちで	-11711
聞こえて	-11712
言われる	-11713
はそのまま	-11714
していることが	-11715
RI	-11716
やき	-11717
カ月	-11718
中世	-11719
制服	-11720
川を	-11721
手前	-11722
擁護	-11723
時を	-11724
節約	-11725
集め	-11726
▁実は	-11727
みても	-11728
ユース	-11729
2024	-11730
代表的な	-11731
を見ている	-11732
インディアン	-11733
フリードリヒ	-11734
を整	-11735
んか	-11736
壁の	-11737
居て	-11738
展望	-11739
推奨	-11740
火山	-11741
無線	-11742
版は	-11743
貼り	-11744
防災	-11745
食料	-11746
骨折	-11747
じゃア	-11748
っそり	-11749
といっ	-11750
に来る	-11751
まらず	-11752
主義者	-11753
関係が	-11754
を変える	-11755
ようとして	-11756
の心	-11757
を減	-11758
セク	-11759
ミナ	-11760
云ひ	-11761
亡命	-11762
現れ	-11763
給与	-11764
親王	-11765
話で	-11766
豪華	-11767
起訴	-11768
▁いま	-11769
事件を	-11770
著名な	-11771
言葉に	-11772
ものだが	-11773
を開いた	-11774
にはならない	-11775
と呼ばれている	-11776
したいと思います	-11777
ところでございます	-11778
▁シ	-11779
▁朝	-11780
さぬ	-11781
の各	-11782
仮定	-11783
全般	-11784
兼ね	-11785
反論	-11786
土壌	-11787
段々	-11788
発送	-11789
紙を	-11790
鉄砲	-11791
ire	-11792
でさえ	-11793
誕生日	-11794
▁二人は	-11795
おいしい	-11796
されても	-11797
してみた	-11798
を加えた	-11799
知れない	-11800
を代表する	-11801
おと	-11802
マサ	-11803
但し	-11804
光は	-11805
回は	-11806
明の	-11807
虐待	-11808
諏訪	-11809
▁今日	-11810
3000	-11811
するほど	-11812
を取った	-11813
を含めて	-11814
。2020	-11815
▁車	-11816
ふん	-11817
イク	-11818
嫉妬	-11819
小野	-11820
用心	-11821
発掘	-11822
▁自分	-11823
を上げ	-11824
を建設	-11825
ステー	-11826
スープ	-11827
今年の	-11828
企業が	-11829
前後の	-11830
大阪市	-11831
その日の	-11832
アンダー	-11833
人たちは	-11834
本格的な	-11835
、2001	-11836
という感じ	-11837
マガ	-11838
妄想	-11839
撤去	-11840
王者	-11841
背中	-11842
覧会	-11843
音源	-11844
ことば	-11845
した際	-11846
につれ	-11847
の作品	-11848
を意識	-11849
正確に	-11850
おかげで	-11851
アイランド	-11852
思い出した	-11853
▁松	-11854
のこ	-11855
を向	-11856
ラジ	-11857
一見	-11858
仮想	-11859
動揺	-11860
▁から	-11861
が決定	-11862
に身を	-11863
れたり	-11864
バイオ	-11865
米国の	-11866
込まれ	-11867
ならびに	-11868
に就いて	-11869
のですよ	-11870
オレンジ	-11871
たけ	-11872
の分	-11873
化は	-11874
日米	-11875
暫定	-11876
横断	-11877
目撃	-11878
した時	-11879
めたい	-11880
教科書	-11881
新幹線	-11882
さんのお	-11883
した際に	-11884
する事が	-11885
を決めた	-11886
大学教授	-11887
セキュリティ	-11888
のでございます	-11889
スコットランド	-11890
お腹	-11891
の町	-11892
へい	-11893
を撃	-11894
人事	-11895
信念	-11896
生が	-11897
生を	-11898
神は	-11899
美人	-11900
附近	-11901
▁同年	-11902
その間	-11903
仲間の	-11904
記録を	-11905
都市の	-11906
のあたり	-11907
のことで	-11908
人がいる	-11909
助手	-11910
去り	-11911
左の	-11912
東大	-11913
骨を	-11914
ure	-11915
ふしぎ	-11916
よろこ	-11917
ミナル	-11918
映画祭	-11919
わたした	-11920
チベット	-11921
分かった	-11922
SC	-11923
ペア	-11924
夕食	-11925
奴は	-11926
役員	-11927
日と	-11928
日向	-11929
昆虫	-11930
死を	-11931
着陸	-11932
/10	-11933
どこで	-11934
プター	-11935
ライド	-11936
たくない	-11937
にもなる	-11938
の人々が	-11939
に貢献した	-11940
3)	-11941
モロ	-11942
上流	-11943
交付	-11944
匿名	-11945
厄介	-11946
圧迫	-11947
失望	-11948
省略	-11949
かくて	-11950
さずに	-11951
を入れ	-11952
カート	-11953
付きの	-11954
内での	-11955
大した	-11956
思うと	-11957
に立った	-11958
はいずれ	-11959
切れない	-11960
ベーション	-11961
考えております	-11962
ヘイ	-11963
中断	-11964
夢の	-11965
太は	-11966
尽力	-11967
庁舎	-11968
歩行	-11969
補修	-11970
返答	-11971
部で	-11972
配給	-11973
を活用	-11974
マルク	-11975
見ても	-11976
部分に	-11977
するのか	-11978
する際に	-11979
ものなら	-11980
ニューアル	-11981
利用できる	-11982
があったので	-11983
ことにしました	-11984
▁相	-11985
ヘー	-11986
元来	-11987
好評	-11988
岩手	-11989
滋賀	-11990
葉は	-11991
血管	-11992
運賃	-11993
が来て	-11994
に移転	-11995
事から	-11996
勢力を	-11997
本当は	-11998
行われ	-11999
行動を	-12000
ボーカル	-12001
それ以外の	-12002
になったり	-12003
待っていた	-12004
インストール	-12005
プロレタリア	-12006
TC	-12007
が作	-12008
を制	-12009
を閉	-12010
エコ	-12011
ギン	-12012
チナ	-12013
リは	-12014
備え	-12015
勤め	-12016
決断	-12017
窓の	-12018
選考	-12019
のじゃ	-12020
ジャク	-12021
及ぼす	-12022
商品を	-12023
存在し	-12024
こともあって	-12025
わけですから	-12026
あて	-12027
咲き	-12028
器を	-12029
城は	-12030
法第	-12031
関数	-12032
面接	-12033
風な	-12034
魚雷	-12035
ang	-12036
そっち	-12037
にとり	-12038
わるい	-12039
を否定	-12040
場合も	-12041
▁口コミ	-12042
を持つて	-12043
を起こす	-12044
が出てくる	-12045
働いている	-12046
が相	-12047
とよ	-12048
上演	-12049
干渉	-12050
暮れ	-12051
の必要	-12052
を訪問	-12053
サウス	-12054
最後は	-12055
自衛隊	-12056
はいって	-12057
んでゐる	-12058
発見した	-12059
いけません	-12060
れてしまう	-12061
(8	-12062
××	-12063
の差	-12064
の為	-12065
ホッ	-12066
リゾ	-12067
一瞬	-12068
且つ	-12069
勃発	-12070
圧縮	-12071
大尉	-12072
感激	-12073
発音	-12074
お金を	-12075
デッキ	-12076
年ごろ	-12077
無事に	-12078
貧しい	-12079
があつて	-12080
その間に	-12081
して下さい	-12082
であろうと	-12083
ではありませんか	-12084
げん	-12085
ヌス	-12086
宇都	-12087
家も	-12088
寧ろ	-12089
注射	-12090
細な	-12091
▁>>	-12092
著作権	-12093
とは違う	-12094
のドレス	-12095
へ行った	-12096
を決める	-12097
本格的に	-12098
に登場する	-12099
ヨーロッパの	-12100
ねぇ	-12101
はた	-12102
予告	-12103
信濃	-12104
公平	-12105
喪失	-12106
格好	-12107
版が	-12108
試作	-12109
ram	-12110
▁他の	-12111
つたら	-12112
を依頼	-12113
ディオ	-12114
を行って	-12115
二人とも	-12116
▁2004	-12117
そのうちに	-12118
待っている	-12119
オリンピックの	-12120
ありがとうございました	-12121
は第	-12122
アタ	-12123
カプ	-12124
ズル	-12125
トの	-12126
代謝	-12127
勘定	-12128
学を	-12129
戸の	-12130
救助	-12131
歴任	-12132
行け	-12133
▁彼の	-12134
おばあ	-12135
を経験	-12136
ルトの	-12137
佐々木	-12138
場所を	-12139
などには	-12140
の影響で	-12141
テレビアニメ	-12142
▁な	-12143
▁正	-12144
コリ	-12145
分で	-12146
殿の	-12147
生れ	-12148
野村	-12149
のだよ	-12150
るとは	-12151
定めた	-12152
組織の	-12153
気持ちが	-12154
感じられる	-12155
iPhone	-12156
▁Z	-12157
せり	-12158
に繋	-12159
事柄	-12160
会合	-12161
充電	-12162
奨励	-12163
山崎	-12164
意を	-12165
監査	-12166
端の	-12167
隙間	-12168
電圧	-12169
が取り	-12170
イエス	-12171
大人の	-12172
モンスター	-12173
久しぶりに	-12174
のであるから	-12175
の他	-12176
代は	-12177
君と	-12178
田村	-12179
編纂	-12180
部と	-12181
が生じ	-12182
に比べ	-12183
わした	-12184
コンの	-12185
年ぶり	-12186
魅力を	-12187
が始まり	-12188
けられた	-12189
その上に	-12190
どこかに	-12191
モバイル	-12192
はならない	-12193
シュタイン	-12194
建てられた	-12195
持っていた	-12196
FM	-12197
に重	-12198
を極	-12199
ウー	-12200
カツ	-12201
ダラ	-12202
同日	-12203
型は	-12204
徳島	-12205
教の	-12206
横た	-12207
症の	-12208
痩せ	-12209
短編	-12210
親子	-12211
(13	-12212
身体の	-12213
部隊は	-12214
関係は	-12215
マイナス	-12216
主張する	-12217
場合でも	-12218
テインメント	-12219
ではありますが	-12220
IL	-12221
内を	-12222
叫ぶ	-12223
慶長	-12224
手続	-12225
西の	-12226
阻害	-12227
からぬ	-12228
ちゅう	-12229
に成功	-12230
をどう	-12231
を支援	-12232
ミュン	-12233
情報は	-12234
早くも	-12235
本人は	-12236
ふたたび	-12237
思われる	-12238
してみると	-12239
だと思って	-12240
とのことで	-12241
デザイナー	-12242
えん	-12243
を再	-12244
キの	-12245
中略	-12246
会館	-12247
先進	-12248
出産	-12249
外科	-12250
本能	-12251
石垣	-12252
長男	-12253
その日	-12254
に落ち	-12255
スムー	-12256
リンは	-12257
ングル	-12258
持つて	-12259
監督は	-12260
1991	-12261
1993	-12262
たいへん	-12263
に際して	-12264
マイナー	-12265
レーザー	-12266
主人公の	-12267
いますので	-12268
に相違ない	-12269
リチャード	-12270
クレジットカード	-12271
PP	-12272
ib	-12273
がね	-12274
ニオ	-12275
ボウ	-12276
余は	-12277
大勢	-12278
女と	-12279
延期	-12280
次男	-12281
歌は	-12282
神宮	-12283
神田	-12284
角の	-12285
がつく	-12286
さんや	-12287
やめて	-12288
るまで	-12289
メダル	-12290
団体の	-12291
多少の	-12292
みながら	-12293
を越えて	-12294
が発生した	-12295
pt	-12296
よこ	-12297
ッテ	-12298
互に	-12299
先づ	-12300
同級	-12301
救済	-12302
派生	-12303
船舶	-12304
降格	-12305
もった	-12306
エイト	-12307
ルトン	-12308
▁ここで	-12309
アルゼン	-12310
現在でも	-12311
タイトルを	-12312
RC	-12313
むき	-12314
カチ	-12315
三度	-12316
上下	-12317
仮説	-12318
保全	-12319
保湿	-12320
国籍	-12321
大量	-12322
将棋	-12323
廻り	-12324
戦国	-12325
表彰	-12326
ちゃう	-12327
挙げた	-12328
訪れる	-12329
するとき	-12330
その時の	-12331
になろう	-12332
ようだが	-12333
死亡した	-12334
都道府県	-12335
。2000	-12336
テクニック	-12337
することが可能	-12338
パフォーマンス	-12339
に付	-12340
上を	-12341
今更	-12342
南京	-12343
回に	-12344
回数	-12345
庭園	-12346
殺す	-12347
費や	-12348
順番	-12349
の音が	-12350
ますね	-12351
フィラ	-12352
王国の	-12353
(^^)	-12354
鮮やかな	-12355
▁たとえば	-12356
▁引っ越し	-12357
笑いながら	-12358
こんなことを	-12359
ふら	-12360
井の	-12361
帽子	-12362
様々	-12363
氏に	-12364
洞窟	-12365
派は	-12366
知的	-12367
継ぐ	-12368
衣服	-12369
駅で	-12370
さまに	-12371
なしの	-12372
の仕事	-12373
の名を	-12374
人物が	-12375
化され	-12376
戦闘機	-12377
有する	-12378
決まり	-12379
1987	-12380
あわせて	-12381
きれいな	-12382
する前に	-12383
みんなで	-12384
ってもらう	-12385
導入された	-12386
に選出された	-12387
であることから	-12388
ノコ	-12389
人達	-12390
妖怪	-12391
紙に	-12392
胸が	-12393
花は	-12394
貴方	-12395
選定	-12396
とはい	-12397
の一番	-12398
マーケ	-12399
世代の	-12400
内容が	-12401
月下旬	-12402
頭から	-12403
いちばん	-12404
を考える	-12405
No	-12406
lu	-12407
pe	-12408
▁デ	-12409
ボリ	-12410
六十	-12411
守り	-12412
待た	-12413
旅の	-12414
給料	-12415
認証	-12416
をなす	-12417
ステン	-12418
ポーズ	-12419
親しく	-12420
計画は	-12421
コマンド	-12422
年ぶりの	-12423
。2021	-12424
していたので	-12425
EU	-12426
▁文	-12427
▁生	-12428
だち	-12429
を売	-12430
コモ	-12431
上級	-12432
主観	-12433
天正	-12434
月刊	-12435
毛が	-12436
しそう	-12437
で活動	-12438
に次ぐ	-12439
の人気	-12440
を実行	-12441
を披露	-12442
追いつ	-12443
部屋で	-12444
を演じた	-12445
高速道路	-12446
ことだった	-12447
ファイナル	-12448
RL	-12449
くろ	-12450
の再	-12451
も一	-12452
ビス	-12453
伊達	-12454
併用	-12455
外観	-12456
漁業	-12457
近隣	-12458
えらい	-12459
が立ち	-12460
が見つ	-12461
さまが	-12462
さまの	-12463
し得る	-12464
めいた	-12465
もせず	-12466
ヴェー	-12467
事業者	-12468
機関の	-12469
男性は	-12470
と同様の	-12471
いろいろと	-12472
▁このように	-12473
プロデュース	-12474
させていただきます	-12475
三浦	-12476
出席	-12477
附属	-12478
▁当時	-12479
あとの	-12480
そこを	-12481
を批判	-12482
を通る	-12483
デンの	-12484
努力を	-12485
ストック	-12486
わかりました	-12487
LA	-12488
▁初	-12489
中野	-12490
別荘	-12491
尋常	-12492
底に	-12493
探す	-12494
東南	-12495
次ぎ	-12496
疑惑	-12497
響き	-12498
ary	-12499
おとな	-12500
みたり	-12501
を重ね	-12502
レール	-12503
期間は	-12504
消えた	-12505
ドクター	-12506
アドバイス	-12507
うす	-12508
ーー	-12509
一覧	-12510
二は	-12511
千円	-12512
奥の	-12513
性的	-12514
曖昧	-12515
病の	-12516
眠り	-12517
見の	-12518
見物	-12519
-11	-12520
がどう	-12521
が大き	-12522
に切り	-12523
を抱き	-12524
っちゃう	-12525
▁ル	-12526
▁夜	-12527
ヨガ	-12528
仲介	-12529
何だ	-12530
全域	-12531
包み	-12532
当事	-12533
木を	-12534
祝い	-12535
谷は	-12536
路は	-12537
量産	-12538
阿弥	-12539
のとき	-12540
サンタ	-12541
ニーは	-12542
リーナ	-12543
万人の	-12544
出かけ	-12545
分ける	-12546
放送局	-12547
訪ねて	-12548
違いは	-12549
障害者	-12550
ことでも	-12551
如何なる	-12552
聞いている	-12553
たう	-12554
や大	-12555
バナ	-12556
乃至	-12557
博多	-12558
撫で	-12559
洪水	-12560
滅多	-12561
眺め	-12562
落着	-12563
誇る	-12564
閲覧	-12565
を振り	-12566
スカイ	-12567
メモリ	-12568
作品で	-12569
切りに	-12570
合せて	-12571
地位を	-12572
失った	-12573
伝わって	-12574
。2004	-12575
が多かった	-12576
制作された	-12577
▁ト	-12578
先が	-12579
普遍	-12580
検出	-12581
稼働	-12582
だけだ	-12583
下から	-12584
商品は	-12585
支払う	-12586
父親の	-12587
福島県	-12588
こだわり	-12589
に見えた	-12590
ると思う	-12591
を除いて	-12592
過ごした	-12593
日に行われた	-12594
-5	-12595
DC	-12596
GB	-12597
ガム	-12598
有料	-12599
物と	-12600
軽量	-12601
青山	-12602
ark	-12603
いると	-12604
うなず	-12605
ですら	-12606
作曲家	-12607
年間で	-12608
駐車場	-12609
1994	-12610
それらは	-12611
セルビア	-12612
含まれて	-12613
的なもの	-12614
記録した	-12615
運営する	-12616
高く評価	-12617
いいました	-12618
フランス語	-12619
ミッション	-12620
居りました	-12621
これによって	-12622
FF	-12623
先祖	-12624
地中	-12625
塗料	-12626
士が	-12627
搭乗	-12628
方言	-12629
歩み	-12630
駅前	-12631
ためて	-12632
の方も	-12633
をやる	-12634
宇都宮	-12635
指揮官	-12636
落とす	-12637
詳細は	-12638
いたので	-12639
が出来る	-12640
くれます	-12641
なくとも	-12642
ばっかり	-12643
へ向かう	-12644
ネットで	-12645
なくなりました	-12646
何者	-12647
兵は	-12648
分岐	-12649
師事	-12650
法に	-12651
税の	-12652
衞門	-12653
記号	-12654
(14	-12655
ock	-12656
に追い	-12657
を拒否	-12658
マニュ	-12659
ランス	-12660
二度と	-12661
地域は	-12662
年の第	-12663
番組で	-12664
被害者	-12665
ショット	-12666
自動的に	-12667
ことがあり	-12668
しておらず	-12669
んですから	-12670
のかも知れない	-12671
カリフォルニア州	-12672
▁モ	-12673
じみ	-12674
命が	-12675
庶民	-12676
法令	-12677
神秘	-12678
縁の	-12679
net	-12680
っぱい	-12681
ませた	-12682
られぬ	-12683
役立つ	-12684
植物の	-12685
決めて	-12686
入れている	-12687
具体的には	-12688
oh	-12689
光る	-12690
品は	-12691
坊主	-12692
小学	-12693
法で	-12694
競合	-12695
身が	-12696
もつと	-12697
ダーの	-12698
ハイム	-12699
発電所	-12700
エージェ	-12701
ライオン	-12702
位置づけ	-12703
自動車の	-12704
かったので	-12705
つかなかった	-12706
▁美	-12707
度で	-12708
役者	-12709
探検	-12710
柔道	-12711
しまふ	-12712
を追加	-12713
クレー	-12714
ピーク	-12715
主人は	-12716
理事長	-12717
面では	-12718
1992	-12719
がないと	-12720
してその	-12721
んでおり	-12722
ブルジョ	-12723
決まった	-12724
つけられた	-12725
を見つけた	-12726
フットボール	-12727
マネージャー	-12728
タウ	-12729
三月	-12730
主任	-12731
兵の	-12732
可笑	-12733
抽象	-12734
明瞭	-12735
権は	-12736
登り	-12737
百貨	-12738
破綻	-12739
論の	-12740
▁女性	-12741
からか	-12742
が最も	-12743
をおろ	-12744
ネルの	-12745
ノール	-12746
一気に	-12747
直前に	-12748
答えて	-12749
開いて	-12750
が始まる	-12751
したのか	-12752
見ている	-12753
に相当する	-12754
▁年	-12755
を覗	-12756
分散	-12757
声も	-12758
山城	-12759
費の	-12760
送料	-12761
降る	-12762
除去	-12763
頂戴	-12764
▁at	-12765
の方針	-12766
世界観	-12767
全体に	-12768
工場の	-12769
面から	-12770
を離れて	-12771
わかりません	-12772
An	-12773
▁』	-12774
三振	-12775
何事	-12776
前田	-12777
妹の	-12778
庭に	-12779
違ひ	-12780
を着た	-12781
カスタ	-12782
キャプ	-12783
ビジネ	-12784
並びに	-12785
単純に	-12786
工事を	-12787
特有の	-12788
買取り	-12789
、100	-12790
が増えて	-12791
と違って	-12792
ユダヤ人	-12793
ースター	-12794
華やかな	-12795
たいという	-12796
DF	-12797
ぶつ	-12798
八百	-12799
山岳	-12800
工程	-12801
巨人	-12802
文は	-12803
構図	-12804
空母	-12805
がよい	-12806
めたり	-12807
を攻撃	-12808
サクラ	-12809
感じの	-12810
演じる	-12811
▁The	-12812
を大きく	-12813
を訪れた	-12814
ストップ	-12815
ラグビー	-12816
などにより	-12817
ウォーター	-12818
住んでいる	-12819
かと思います	-12820
(5	-12821
ck	-12822
に襲	-12823
を介	-12824
モス	-12825
克服	-12826
共感	-12827
口座	-12828
成程	-12829
魚の	-12830
の家に	-12831
住まい	-12832
然たる	-12833
能力が	-12834
運動の	-12835
開いた	-12836
さっぱり	-12837
ミネート	-12838
終わって	-12839
というのを	-12840
GT	-12841
こた	-12842
人数	-12843
月中	-12844
東の	-12845
此處	-12846
洒落	-12847
竣工	-12848
辞任	-12849
ちょっ	-12850
ちらの	-12851
に挑戦	-12852
やると	-12853
シフト	-12854
ビーチ	-12855
兎に角	-12856
映画は	-12857
芸術家	-12858
関連の	-12859
▁for	-12860
がかかり	-12861
という事	-12862
えるように	-12863
どうしたら	-12864
▁ロ	-12865
ネク	-12866
悪な	-12867
明白	-12868
晴れ	-12869
極端	-12870
着て	-12871
風俗	-12872
るんだ	-12873
ヴェン	-12874
業者に	-12875
眺めて	-12876
を収めた	-12877
大会では	-12878
立たない	-12879
できるよう	-12880
ストレート	-12881
ざり	-12882
ぞろ	-12883
を無	-12884
ギル	-12885
受付	-12886
山梨	-12887
平等	-12888
広報	-12889
彼等	-12890
添加	-12891
熱帯	-12892
を継続	-12893
を聞き	-12894
カンド	-12895
カンパ	-12896
ヘリコ	-12897
利用者	-12898
部から	-12899
ほかにも	-12900
を果たし	-12901
人が多い	-12902
朝日新聞	-12903
だけである	-12904
作品である	-12905
廃止された	-12906
が鳴	-12907
じり	-12908
丘陵	-12909
先へ	-12910
君主	-12911
渡す	-12912
立法	-12913
行し	-12914
したか	-12915
の多い	-12916
を多く	-12917
を支配	-12918
イデオ	-12919
チーズ	-12920
工事が	-12921
細かな	-12922
過程で	-12923
をついて	-12924
ビックリ	-12925
利用する	-12926
を利用した	-12927
日にかけて	-12928
▁後	-12929
サロ	-12930
デリ	-12931
倒れ	-12932
宿の	-12933
市川	-12934
当社	-12935
蒲団	-12936
銀の	-12937
が原因	-12938
の日本	-12939
をその	-12940
を調べ	-12941
グッズ	-12942
パレス	-12943
名前は	-12944
病院の	-12945
が起きた	-12946
ビタミン	-12947
フィート	-12948
個人的な	-12949
安全保障	-12950
がつかない	-12951
ボクシング	-12952
メンテナン	-12953
上げられた	-12954
代表取締役	-12955
用いられている	-12956
OM	-12957
iz	-12958
を呈	-12959
ミシ	-12960
真珠	-12961
経歴	-12962
財務	-12963
つたり	-12964
を送り	-12965
去って	-12966
替えて	-12967
▁である	-12968
これほど	-12969
させると	-12970
さわしい	-12971
とする説	-12972
コンサル	-12973
だからこそ	-12974
コロンビア	-12975
同じように	-12976
uk	-12977
ひっ	-12978
ひて	-12979
をぬ	-12980
タケ	-12981
リム	-12982
和解	-12983
年目	-12984
成人	-12985
独裁	-12986
老婆	-12987
谷川	-12988
道理	-12989
に移住	-12990
の如き	-12991
内部の	-12992
暮らす	-12993
母親の	-12994
父親は	-12995
荷物を	-12996
選挙で	-12997
われわれは	-12998
ハリウッド	-12999
驚きました	-13000
サンフランシスコ	-13001
SE	-13002
▁全	-13003
エロ	-13004
ダは	-13005
宗の	-13006
暗号	-13007
橋本	-13008
職の	-13009
運輸	-13010
陰謀	-13011
に手を	-13012
ルーツ	-13013
二十五	-13014
今夜は	-13015
原因は	-13016
名前の	-13017
本人が	-13018
しかつた	-13019
コロナウ	-13020
共和国の	-13021
定期的に	-13022
落として	-13023
があったら	-13024
(6	-13025
ll	-13026
▁他	-13027
が盛	-13028
ぶっ	-13029
動力	-13030
勝つ	-13031
合戦	-13032
想い	-13033
コラム	-13034
ロープ	-13035
京都市	-13036
国では	-13037
から来た	-13038
▁こうして	-13039
ったという	-13040
まいります	-13041
ウェブサイト	-13042
eg	-13043
の白	-13044
やア	-13045
を模	-13046
加速	-13047
姿で	-13048
時頃	-13049
番頭	-13050
諸君	-13051
辺の	-13052
這入	-13053
酷な	-13054
が中心	-13055
と出会	-13056
を制作	-13057
バット	-13058
助教授	-13059
第二次	-13060
が必要な	-13061
とは別に	-13062
バンドの	-13063
ポーター	-13064
1,000	-13065
というより	-13066
コンテスト	-13067
「『	-13068
を吹	-13069
タス	-13070
偵察	-13071
室へ	-13072
流し	-13073
牽引	-13074
石井	-13075
ies	-13076
がまだ	-13077
の方々	-13078
の流れ	-13079
エルの	-13080
熱心に	-13081
いており	-13082
を考えて	-13083
を超えた	-13084
言いました	-13085
それによって	-13086
▁y	-13087
と対	-13088
ふれ	-13089
会津	-13090
再会	-13091
密に	-13092
赤字	-13093
で購入	-13094
といた	-13095
の声が	-13096
ステル	-13097
何しろ	-13098
活動は	-13099
ついでに	-13100
を続ける	-13101
コメディ	-13102
テキサス	-13103
リーマン	-13104
これからも	-13105
シンガポール	-13106
マーケティング	-13107
ということになる	-13108
.........	-13109
つう	-13110
タラ	-13111
党は	-13112
土の	-13113
後退	-13114
悲鳴	-13115
支障	-13116
経て	-13117
^^;	-13118
打って	-13119
資金を	-13120
面積は	-13121
1988	-13122
いつまで	-13123
などでも	-13124
にかかり	-13125
大学大学院	-13126
が必要である	-13127
ps	-13128
に依	-13129
に迫	-13130
むる	-13131
を敷	-13132
タは	-13133
二本	-13134
何處	-13135
南の	-13136
為替	-13137
福音	-13138
素人	-13139
美濃	-13140
聴き	-13141
くさい	-13142
へんな	-13143
デバイ	-13144
メイド	-13145
ラーが	-13146
乗り越	-13147
二人を	-13148
のもとで	-13149
人たちの	-13150
自分たち	-13151
ことごとく	-13152
のおかげで	-13153
を見つけて	-13154
エドワード	-13155
メンタリー	-13156
を受けていた	-13157
んですけれども	-13158
BE	-13159
々々	-13160
が遅	-13161
ごみ	-13162
に載	-13163
のび	-13164
んび	-13165
カメ	-13166
キョ	-13167
前へ	-13168
原始	-13169
吉野	-13170
有様	-13171
血を	-13172
間隔	-13173
順調	-13174
食糧	-13175
アイヌ	-13176
ヴォー	-13177
助ける	-13178
同社の	-13179
挙げて	-13180
欠かせ	-13181
からざる	-13182
スケート	-13183
ハッピー	-13184
誕生した	-13185
▁けれども	-13186
がほとんど	-13187
と比較して	-13188
オールイン	-13189
っているのは	-13190
インドネシア	-13191
めく	-13192
交易	-13193
休憩	-13194
伝達	-13195
年寄	-13196
直前	-13197
ain	-13198
と彼は	-13199
の規定	-13200
あがった	-13201
ブレット	-13202
落とした	-13203
集まって	-13204
そうでない	-13205
ノミネート	-13206
したいという	-13207
ではないかと	-13208
しお	-13209
みち	-13210
シド	-13211
受容	-13212
土佐	-13213
届く	-13214
旨を	-13215
水戸	-13216
田市	-13217
行事	-13218
輝く	-13219
運河	-13220
III	-13221
ますか	-13222
意外と	-13223
機能が	-13224
この場合	-13225
のごとく	-13226
イデオロ	-13227
、1999	-13228
できている	-13229
なりました	-13230
コンパクト	-13231
チェスター	-13232
化している	-13233
可能性が高い	-13234
GE	-13235
hy	-13236
▁実	-13237
。"	-13238
きみ	-13239
の北	-13240
シネ	-13241
反抗	-13242
号線	-13243
因果	-13244
族は	-13245
最強	-13246
氏と	-13247
鳥取	-13248
に昇格	-13249
を買い	-13250
エルン	-13251
ダイナ	-13252
今度の	-13253
併せて	-13254
我々が	-13255
飛んだ	-13256
ときどき	-13257
ともいう	-13258
みんなの	-13259
。1990	-13260
らなければ	-13261
お願いします	-13262
〇〇	-13263
ふわ	-13264
傍に	-13265
妨げ	-13266
実な	-13267
畜生	-13268
相模	-13269
知名	-13270
近藤	-13271
都会	-13272
と評価	-13273
家には	-13274
業者を	-13275
翌年の	-13276
訴える	-13277
避けて	-13278
あがって	-13279
そっくり	-13280
申し込み	-13281
がたくさん	-13282
太陽光発電	-13283
を示している	-13284
▁レ	-13285
ずら	-13286
ツキ	-13287
テラ	-13288
パナ	-13289
ラマ	-13290
上る	-13291
倍の	-13292
公は	-13293
内蔵	-13294
書店	-13295
東宝	-13296
繁栄	-13297
迅速	-13298
っぱら	-13299
両者の	-13300
いったん	-13301
などにも	-13302
ひたすら	-13303
を置いて	-13304
トランス	-13305
提供する	-13306
ごま	-13307
ぜい	-13308
に導	-13309
むか	-13310
器具	-13311
奏曲	-13312
突如	-13313
茶屋	-13314
を考慮	-13315
彼には	-13316
詰めて	-13317
ガソリン	-13318
ッキング	-13319
違います	-13320
だけだった	-13321
ものが多い	-13322
があるという	-13323
きたいと思います	-13324
OP	-13325
どっ	-13326
に収	-13327
周期	-13328
平の	-13329
指す	-13330
滅亡	-13331
療養	-13332
あの人	-13333
いくと	-13334
つらい	-13335
としか	-13336
バルト	-13337
状態の	-13338
研究の	-13339
そのものの	-13340
▁海	-13341
まね	-13342
を捕	-13343
主体	-13344
停留	-13345
勢い	-13346
天王	-13347
平日	-13348
最早	-13349
歌唱	-13350
近衛	-13351
飽き	-13352
高原	-13353
いこう	-13354
こそが	-13355
ご注文	-13356
にあら	-13357
ようか	-13358
リット	-13359
▁一方で	-13360
あんなに	-13361
なもので	-13362
なんにも	-13363
オーダー	-13364
ダービー	-13365
ブルース	-13366
べきである	-13367
嬉しかった	-13368
リニューアル	-13369
といわれている	-13370
-7	-13371
の背	-13372
ルン	-13373
出現	-13374
前回	-13375
変異	-13376
氣が	-13377
渋滞	-13378
終結	-13379
裏に	-13380
are	-13381
▁効果	-13382
に入社	-13383
んでは	-13384
ピット	-13385
合いを	-13386
時期は	-13387
込めて	-13388
部隊の	-13389
うっかり	-13390
チャンス	-13391
出演した	-13392
すばらしい	-13393
人であった	-13394
されることが	-13395
パーソナリティ	-13396
(=	-13397
ラウ	-13398
不能	-13399
参り	-13400
良好	-13401
茶碗	-13402
が日本	-13403
たれて	-13404
アラブ	-13405
キック	-13406
バージ	-13407
パイプ	-13408
明確な	-13409
、「――	-13410
あとから	-13411
がかなり	-13412
アドレス	-13413
優勝した	-13414
知ってる	-13415
をそのまま	-13416
ウェディング	-13417
プライベート	-13418
プロダクション	-13419
を拾	-13420
主導	-13421
前年	-13422
終戦	-13423
雨戸	-13424
▁30	-13425
たまり	-13426
の範囲	-13427
はそれ	-13428
下りて	-13429
公務員	-13430
周囲に	-13431
期から	-13432
業者は	-13433
があるか	-13434
させない	-13435
となるが	-13436
のなかに	-13437
モデルの	-13438
が出ている	-13439
とおっしゃ	-13440
ディスプレイ	-13441
ミュージシャン	-13442
一が	-13443
像を	-13444
立体	-13445
郊外	-13446
つつも	-13447
であれ	-13448
を占領	-13449
レージ	-13450
大好き	-13451
機関車	-13452
神社の	-13453
第一の	-13454
いつのま	-13455
をベース	-13456
知られた	-13457
行きたい	-13458
プロイセン	-13459
!?	-13460
"』	-13461
CH	-13462
を欠	-13463
ロケ	-13464
函館	-13465
抜く	-13466
根の	-13467
神が	-13468
菩薩	-13469
落選	-13470
語が	-13471
陣営	-13472
高は	-13473
▁世界	-13474
をめぐ	-13475
ガール	-13476
ッティ	-13477
優秀な	-13478
母親は	-13479
私達は	-13480
聴いて	-13481
やさしい	-13482
ジメント	-13483
ハッキリ	-13484
私はこの	-13485
、1998	-13486
することができた	-13487
▁各	-13488
に取	-13489
の足	-13490
三井	-13491
拒絶	-13492
わして	-13493
グラフ	-13494
回った	-13495
生じる	-13496
発売の	-13497
見せる	-13498
起った	-13499
カウント	-13500
如何にも	-13501
帝国大学	-13502
残された	-13503
ならではの	-13504
られていたが	-13505
ることができ	-13506
を務めていた	-13507
アレクサンド	-13508
と相	-13509
の定	-13510
コク	-13511
ミノ	-13512
似て	-13513
助言	-13514
寝た	-13515
満洲	-13516
種が	-13517
給え	-13518
薄く	-13519
話に	-13520
-12	-13521
のみを	-13522
ダーク	-13523
ラップ	-13524
レード	-13525
名称は	-13526
看護婦	-13527
計画の	-13528
するから	-13529
で初めて	-13530
に参加し	-13531
の上には	-13532
の人々の	-13533
を選んだ	-13534
、1960	-13535
oy	-13536
▁@	-13537
に臨	-13538
を仰	-13539
伴い	-13540
十日	-13541
品川	-13542
婚約	-13543
専念	-13544
親族	-13545
/11	-13546
ってた	-13547
を知り	-13548
別れた	-13549
甲子園	-13550
となれば	-13551
もう一つ	-13552
をつくり	-13553
ウルトラ	-13554
ドラッグ	-13555
すれ	-13556
つゝ	-13557
イと	-13558
シッ	-13559
ソウ	-13560
側へ	-13561
地形	-13562
筋の	-13563
隅に	-13564
階の	-13565
黒の	-13566
ide	-13567
やり方	-13568
ウォル	-13569
使った	-13570
公園の	-13571
科学の	-13572
育てる	-13573
走った	-13574
、2023	-13575
するところ	-13576
されていなかった	-13577
がれ	-13578
きゃ	-13579
つち	-13580
ザク	-13581
僕に	-13582
外線	-13583
官が	-13584
実の	-13585
戻り	-13586
消す	-13587
解雇	-13588
ann	-13589
かずに	-13590
じられ	-13591
事件は	-13592
回戦で	-13593
少しは	-13594
建物は	-13595
物語の	-13596
目的に	-13597
1985	-13598
かならず	-13599
してみる	-13600
判明した	-13601
ee	-13602
▁五	-13603
ほら	-13604
アロ	-13605
ラト	-13606
リダ	-13607
ーん	-13608
事前	-13609
云々	-13610
仕舞	-13611
兵が	-13612
制覇	-13613
大体	-13614
大坂	-13615
承諾	-13616
救援	-13617
新田	-13618
適応	-13619
に巻き	-13620
カーの	-13621
周りの	-13622
居ると	-13623
左右に	-13624
忘れる	-13625
相当の	-13626
茨城県	-13627
警察署	-13628
こんどは	-13629
を入れた	-13630
変化する	-13631
方が良い	-13632
もあったが	-13633
ような気がする	-13634
なくなってしまった	-13635
FO	-13636
むく	-13637
を叩	-13638
エミ	-13639
増え	-13640
延び	-13641
改築	-13642
牧師	-13643
着く	-13644
衰退	-13645
選出	-13646
が出演	-13647
っこう	-13648
一方の	-13649
取れる	-13650
正式な	-13651
ったまま	-13652
どこにも	-13653
トーマス	-13654
存じます	-13655
になったが	-13656
ディレクター	-13657
フィンランド	-13658
CT	-13659
伏見	-13660
兄は	-13661
影を	-13662
徴収	-13663
戦線	-13664
義塾	-13665
課税	-13666
越前	-13667
遺言	-13668
うかが	-13669
こころ	-13670
をより	-13671
エンス	-13672
タワー	-13673
ネック	-13674
婦人の	-13675
警視庁	-13676
ともなく	-13677
オファー	-13678
使用した	-13679
人民共和国	-13680
住んでいた	-13681
GO	-13682
▁か	-13683
ずみ	-13684
スッ	-13685
スワ	-13686
同人	-13687
正常	-13688
湧き	-13689
でしょ	-13690
パール	-13691
周辺で	-13692
感ずる	-13693
渡って	-13694
費用の	-13695
車両の	-13696
1950	-13697
▁東京都	-13698
さんには	-13699
クリエイ	-13700
で行われる	-13701
Ar	-13702
▁た	-13703
▁真	-13704
に拠	-13705
を鳴	-13706
争い	-13707
低迷	-13708
大胆	-13709
尽き	-13710
幻想	-13711
心で	-13712
所蔵	-13713
現金	-13714
脱退	-13715
落語	-13716
順に	-13717
her	-13718
くせに	-13719
と見て	-13720
に従い	-13721
は一切	-13722
を学ぶ	-13723
上では	-13724
抜けた	-13725
生じた	-13726
見せて	-13727
言葉の	-13728
1986	-13729
▁新しい	-13730
ベルギー	-13731
ござります	-13732
その一方で	-13733
覚えている	-13734
記されている	-13735
▁内	-13736
がく	-13737
に近	-13738
やっ	-13739
・「	-13740
入浴	-13741
厳格	-13742
愛媛	-13743
砂漠	-13744
称号	-13745
虐殺	-13746
起動	-13747
でしか	-13748
なつか	-13749
三つの	-13750
越した	-13751
こちらも	-13752
を起こし	-13753
何よりも	-13754
そうとした	-13755
を目指して	-13756
キーボード	-13757
▁い	-13758
とく	-13759
の役	-13760
中毒	-13761
前記	-13762
名詞	-13763
喜ぶ	-13764
家督	-13765
排出	-13766
放題	-13767
法廷	-13768
雲が	-13769
食の	-13770
駆使	-13771
しませ	-13772
と推定	-13773
まかな	-13774
をつぶ	-13775
ッパー	-13776
フロア	-13777
交差点	-13778
何度か	-13779
写真が	-13780
南部の	-13781
微妙な	-13782
生きた	-13783
覚える	-13784
重ねて	-13785
くなつた	-13786
を避ける	-13787
。2022	-13788
を余儀なく	-13789
与えられた	-13790
になるという	-13791
ダイヤモンド	-13792
じん	-13793
を称	-13794
チオ	-13795
冷蔵	-13796
村上	-13797
柄の	-13798
死後	-13799
毛穴	-13800
私有	-13801
肉の	-13802
血が	-13803
釈放	-13804
で勝利	-13805
の映画	-13806
をつと	-13807
を学び	-13808
売れる	-13809
面白く	-13810
▁これを	-13811
しまえば	-13812
と見える	-13813
にはない	-13814
を進めて	-13815
ボリュー	-13816
ポスター	-13817
カウンター	-13818
Google	-13819
されておらず	-13820
しているのか	-13821
ように見える	-13822
ミュージカル	-13823
してしまいました	-13824
とび	-13825
の王	-13826
一二	-13827
不便	-13828
指標	-13829
推移	-13830
時が	-13831
除く	-13832
THE	-13833
リアー	-13834
年現在	-13835
聞える	-13836
それじゃ	-13837
と思うが	-13838
はそれを	-13839
ベートー	-13840
られてきた	-13841
バッテリー	-13842
スレ	-13843
ソル	-13844
ニク	-13845
伺い	-13846
先頭	-13847
履歴	-13848
樹立	-13849
ION	-13850
ことか	-13851
エント	-13852
聞えて	-13853
訴えた	-13854
と異なり	-13855
をテーマ	-13856
フェイス	-13857
圧倒的に	-13858
セッション	-13859
?)	-13860
ん坊	-13861
修士	-13862
勲章	-13863
化石	-13864
告発	-13865
望遠	-13866
間接	-13867
馬場	-13868
に関与	-13869
スリム	-13870
試合は	-13871
そこでは	-13872
ヒロイン	-13873
いていたが	-13874
そうですね	-13875
恥ずかしい	-13876
いております	-13877
こともできる	-13878
データベース	-13879
BL	-13880
Wi	-13881
あき	-13882
を前	-13883
作が	-13884
右翼	-13885
垂れ	-13886
小川	-13887
愛好	-13888
晩は	-13889
職人	-13890
音に	-13891
ove	-13892
▁など	-13893
きのう	-13894
このお	-13895
ござり	-13896
づらい	-13897
の中国	-13898
の主人	-13899
ッセイ	-13900
トゥー	-13901
人類の	-13902
偉大な	-13903
知らん	-13904
製品の	-13905
負けた	-13906
どこまで	-13907
どちらか	-13908
▁2003	-13909
▁日本では	-13910
ことも多い	-13911
といふのは	-13912
ステークス	-13913
位となった	-13914
があることを	-13915
マネジメント	-13916
するものである	-13917
しよ	-13918
に赴	-13919
ひに	-13920
へエ	-13921
ウラ	-13922
クマ	-13923
ッた	-13924
何回	-13925
売れ	-13926
孤立	-13927
慰安	-13928
油断	-13929
温暖	-13930
直通	-13931
葉が	-13932
首の	-13933
ont	-13934
にも拘	-13935
を担う	-13936
を表現	-13937
アレル	-13938
一郎は	-13939
代わり	-13940
思えば	-13941
準決勝	-13942
非常な	-13943
したから	-13944
はこれを	-13945
を開始し	-13946
▁そもそも	-13947
がありますので	-13948
▁黒	-13949
えの	-13950
せつ	-13951
ズー	-13952
メソ	-13953
中山	-13954
君を	-13955
和尚	-13956
地名	-13957
感ぜ	-13958
旅団	-13959
暗示	-13960
に係る	-13961
の時に	-13962
るとか	-13963
マンが	-13964
リッチ	-13965
上での	-13966
倒れた	-13967
取り扱	-13968
頂いた	-13969
その人の	-13970
名誉教授	-13971
日本でも	-13972
させられる	-13973
TS	-13974
▁御	-13975
お目	-13976
しだ	-13977
そそ	-13978
に引	-13979
の初	-13980
の悪	-13981
エゴ	-13982
ツク	-13983
体質	-13984
公正	-13985
夜が	-13986
廃車	-13987
本編	-13988
森の	-13989
習得	-13990
脅迫	-13991
鉱山	-13992
の後ろ	-13993
最適な	-13994
物理学	-13995
▁現在の	-13996
として扱	-13997
をもった	-13998
年までの	-13999
気づいて	-14000
オリジナルの	-14001
DE	-14002
▁青	-14003
ゾー	-14004
ナラ	-14005
取扱	-14006
味は	-14007
喜ば	-14008
室は	-14009
席の	-14010
延ば	-14011
登記	-14012
総称	-14013
聖堂	-14014
費を	-14015
額は	-14016
180	-14017
に当た	-14018
らねえ	-14019
関係で	-14020
▁URL	-14021
これ以上	-14022
したまま	-14023
と云つて	-14024
に見えて	-14025
を選んで	-14026
キャップ	-14027
ドメイン	-14028
ワクワク	-14029
そのものを	-14030
を起こした	-14031
と考えております	-14032
▁見	-14033
じろ	-14034
南海	-14035
始終	-14036
格子	-14037
軽蔑	-14038
配属	-14039
おそれ	-14040
を開き	-14041
ナーは	-14042
モンの	-14043
中学生	-14044
医薬品	-14045
接する	-14046
経済の	-14047
経済学	-14048
ことなど	-14049
っておく	-14050
に敗れた	-14051
インフラ	-14052
自分から	-14053
のみである	-14054
使っている	-14055
ドキュメンタリー	-14056
ずり	-14057
グー	-14058
ザル	-14059
シテ	-14060
ホホ	-14061
ラフ	-14062
体力	-14063
完結	-14064
左様	-14065
書が	-14066
朝に	-14067
醍醐	-14068
難易	-14069
電燈	-14070
を出版	-14071
以上が	-14072
逃げた	-14073
』(19	-14074
ていたが	-14075
はるかに	-14076
失敗した	-14077
安定した	-14078
というふう	-14079
と言っている	-14080
キャラクターの	-14081
EP	-14082
NO	-14083
にき	-14084
にさ	-14085
タム	-14086
三河	-14087
各国	-14088
年半	-14089
戦場	-14090
涙を	-14091
県道	-14092
▁アン	-14093
この際	-14094
ウスは	-14095
ヒント	-14096
大規模	-14097
文学部	-14098
普段は	-14099
月中旬	-14100
プロセス	-14101
はいずれも	-14102
ろうとした	-14103
が開始された	-14104
していましたが	-14105
RA	-14106
くは	-14107
を突	-14108
アデ	-14109
コネ	-14110
万の	-14111
入場	-14112
寺に	-14113
排気	-14114
易い	-14115
遭遇	-14116
隠す	-14117
App	-14118
ほどで	-14119
も無い	-14120
仕掛け	-14121
家では	-14122
見せた	-14123
のと同じ	-14124
ノウハウ	-14125
得られた	-14126
無しさん	-14127
赤ちゃん	-14128
開発した	-14129
くれている	-14130
ところでは	-14131
ディーゼル	-14132
ニュージー	-14133
きで	-14134
に富	-14135
の西	-14136
へ通	-14137
まは	-14138
カミ	-14139
キム	-14140
中途	-14141
少佐	-14142
局は	-14143
席で	-14144
心も	-14145
誤り	-14146
負荷	-14147
ish	-14148
をいた	-14149
シミュ	-14150
ミット	-14151
ースは	-14152
仕事に	-14153
慣れて	-14154
研究者	-14155
サンダー	-14156
地域では	-14157
家として	-14158
限られた	-14159
いないので	-14160
くださいね	-14161
ロンドンの	-14162
太平洋戦争	-14163
んじゃないかな	-14164
4,	-14165
▁花	-14166
たて	-14167
と仰	-14168
ばか	-14169
ッパ	-14170
ノの	-14171
佐野	-14172
其處	-14173
加賀	-14174
命の	-14175
夏に	-14176
破り	-14177
考古	-14178
蕎麦	-14179
補正	-14180
貰う	-14181
過失	-14182
▁買取	-14183
がたい	-14184
の準備	-14185
むろん	-14186
らかに	-14187
命じた	-14188
それなら	-14189
を入れる	-14190
コーディ	-14191
レーダー	-14192
このことは	-14193
に選ばれた	-14194
2/	-14195
を唱	-14196
ナ州	-14197
妻に	-14198
島田	-14199
彼と	-14200
母と	-14201
笑顔	-14202
節の	-14203
膨ら	-14204
視点	-14205
誌の	-14206
豆腐	-14207
限に	-14208
傷を負	-14209
ばかりか	-14210
ドナルド	-14211
あくまでも	-14212
じゃなくて	-14213
アカウント	-14214
ノルウェー	-14215
メンバーの	-14216
YO	-14217
つが	-14218
を挟	-14219
バト	-14220
代々	-14221
壊滅	-14222
小倉	-14223
昼間	-14224
進め	-14225
ust	-14226
▁価格	-14227
。15	-14228
いける	-14229
おそろ	-14230
がんば	-14231
ごとき	-14232
みたが	-14233
をかき	-14234
アダム	-14235
一切の	-14236
将軍の	-14237
小説の	-14238
振って	-14239
無意識	-14240
現実の	-14241
膨大な	-14242
自宅で	-14243
UEFA	-14244
からその	-14245
なんだよ	-14246
に伴って	-14247
に就任し	-14248
に行くと	-14249
はあるが	-14250
話をして	-14251
。2003	-14252
によっても	-14253
選手として	-14254
を張	-14255
同期	-14256
存知	-14257
学位	-14258
小児	-14259
幼児	-14260
床に	-14261
神を	-14262
耐久	-14263
見方	-14264
視察	-14265
視野	-14266
ory	-14267
かねば	-14268
の中は	-14269
を舞台	-14270
一人が	-14271
直した	-14272
▁これが	-14273
が生じた	-14274
を続けた	-14275
サークル	-14276
しかしその	-14277
まいりたい	-14278
われわれの	-14279
レンジャー	-14280
NE	-14281
ey	-14282
がも	-14283
が空	-14284
タと	-14285
夢を	-14286
工合	-14287
滑稽	-14288
磨き	-14289
重賞	-14290
頂き	-14291
ach	-14292
ong	-14293
ッセン	-14294
パンの	-14295
プロト	-14296
勘違い	-14297
1989	-14298
きれいに	-14299
んにちは	-14300
国際空港	-14301
委員会は	-14302
ナポレオン	-14303
バスケットボール	-14304
を明	-14305
コは	-14306
チは	-14307
ナリ	-14308
倶楽	-14309
辞職	-14310
雲の	-14311
骨董	-14312
黒く	-14313
IVE	-14314
ear	-14315
rom	-14316
▁--	-14317
と表記	-14318
友達の	-14319
広大な	-14320
程度で	-14321
親しい	-14322
かないと	-14323
共産主義	-14324
徹底的に	-14325
議会議員	-14326
ターゲット	-14327
これに対して	-14328
%)	-14329
はて	-14330
カワ	-14331
コイ	-14332
リャ	-14333
作に	-14334
併合	-14335
回し	-14336
在る	-14337
密接	-14338
意地	-14339
成熟	-14340
提督	-14341
総務	-14342
開け	-14343
ial	-14344
が確認	-14345
づけた	-14346
とほぼ	-14347
スキン	-14348
プロの	-14349
反対に	-14350
女性に	-14351
手紙を	-14352
▁その時	-14353
と思つて	-14354
歳の時に	-14355
良くない	-14356
これからの	-14357
と呼ばれていた	-14358
ることになった	-14359
ug	-14360
▁六	-14361
▁女	-14362
〜』	-14363
しる	-14364
オバ	-14365
之は	-14366
信長	-14367
処に	-14368
実証	-14369
容器	-14370
敵対	-14371
激怒	-14372
阪急	-14373
iss	-14374
と申す	-14375
に出席	-14376
を示し	-14377
スコア	-14378
ヘルム	-14379
今後も	-14380
伸子は	-14381
各国の	-14382
変えて	-14383
市場の	-14384
文化的	-14385
機会に	-14386
お母さん	-14387
クラウド	-14388
典型的な	-14389
▁1990	-14390
のに対して	-14391
デメリット	-14392
だったのですが	-14393
を掴	-14394
特色	-14395
犯人	-14396
肌が	-14397
面相	-14398
音響	-14399
駅は	-14400
この年	-14401
ごらん	-14402
づけて	-14403
に戻る	-14404
を記念	-14405
ットー	-14406
思いも	-14407
すぎると	-14408
その時は	-14409
まとめた	-14410
ユニバー	-14411
年までは	-14412
目の前に	-14413
知りたい	-14414
がそれぞれ	-14415
が起こった	-14416
のところへ	-14417
されたという	-14418
と評している	-14419
ことになります	-14420
されていますが	-14421
なくなってしまう	-14422
▁◎	-14423
▁家	-14424
だぞ	-14425
で作	-14426
サッ	-14427
三四	-14428
五日	-14429
喫茶	-14430
戯曲	-14431
特性	-14432
絶え	-14433
緑の	-14434
軍勢	-14435
で行う	-14436
様のお	-14437
疲れて	-14438
高齢者	-14439
物として	-14440
限らない	-14441
されるなど	-14442
にかかった	-14443
プロペシア	-14444
参りました	-14445
が残っている	-14446
トイレリフォーム	-14447
▁ひ	-14448
感は	-14449
納税	-14450
線路	-14451
苦悩	-14452
-18	-14453
▁平次	-14454
おじい	-14455
きゅう	-14456
づいて	-14457
へ移籍	-14458
ハイン	-14459
以後の	-14460
変った	-14461
病気の	-14462
病院で	-14463
管弦楽	-14464
色んな	-14465
▁確かに	-14466
しそうな	-14467
にあらず	-14468
ックスは	-14469
恐ろしく	-14470
緩やかな	-14471
を達成した	-14472
と思うのです	-14473
ようであった	-14474
DP	-14475
co	-14476
▁国	-14477
▁石	-14478
「"	-14479
オヤ	-14480
一八	-14481
上司	-14482
乗客	-14483
動向	-14484
慶應	-14485
潜在	-14486
町が	-14487
竹の	-14488
com	-14489
うちは	-14490
があら	-14491
の手に	-14492
京都の	-14493
変らず	-14494
これまでに	-14495
のタイトル	-14496
ベンチャー	-14497
ライセンス	-14498
したのですが	-14499
IO	-14500
NP	-14501
にぎ	-14502
中々	-14503
円で	-14504
水産	-14505
燃焼	-14506
/08	-14507
を開く	-14508
親しみ	-14509
▁引越し	-14510
あいだに	-14511
のことは	-14512
データの	-14513
ボストン	-14514
事実上の	-14515
いろいろの	-14516
イスラーム	-14517
インパクト	-14518
グラウンド	-14519
システムは	-14520
プレーオフ	-14521
サプリメント	-14522
ソビエト連邦	-14523
でございました	-14524
なよ	-14525
イリ	-14526
カサ	-14527
休日	-14528
信託	-14529
個別	-14530
夏は	-14531
川市	-14532
有害	-14533
織り	-14534
識別	-14535
高知	-14536
ase	-14537
▁An	-14538
に変換	-14539
宮城県	-14540
いやすい	-14541
が生じる	-14542
サウルス	-14543
の中にある	-14544
エンジンは	-14545
スクリーン	-14546
デザインの	-14547
原則として	-14548
WS	-14549
きく	-14550
ぐん	-14551
を弾	-14552
ズで	-14553
五輪	-14554
合図	-14555
境遇	-14556
投与	-14557
持た	-14558
浪人	-14559
親が	-14560
起因	-14561
通る	-14562
運搬	-14563
あわせ	-14564
に分け	-14565
を破壊	-14566
明日は	-14567
素直に	-14568
自らが	-14569
に大きく	-14570
を終えた	-14571
事である	-14572
小学校の	-14573
感じました	-14574
していきたい	-14575
をもっている	-14576
▁of▁the	-14577
かもしれないが	-14578
げな	-14579
と三	-14580
の口	-14581
を倒	-14582
カは	-14583
下へ	-14584
分が	-14585
四角	-14586
山頂	-14587
後任	-14588
推理	-14589
敗戦	-14590
武家	-14591
気圧	-14592
詫び	-14593
oft	-14594
▁実際	-14595
やかで	-14596
よいか	-14597
エクス	-14598
年目の	-14599
社長の	-14600
かういふ	-14601
はすべて	-14602
モニター	-14603
出ている	-14604
に含まれる	-14605
御座います	-14606
▁×	-14607
の首	-14608
九月	-14609
入賞	-14610
十月	-14611
室町	-14612
念仏	-14613
矯正	-14614
賞賛	-14615
騎乗	-14616
～」	-14617
そばに	-14618
どなた	-14619
に改称	-14620
ロッテ	-14621
含めて	-14622
和歌山	-14623
地球の	-14624
版では	-14625
番組は	-14626
異常な	-14627
費用を	-14628
よくある	-14629
レッスン	-14630
判らない	-14631
▁2002	-14632
になるのは	-14633
ようという	-14634
▁木	-14635
なぐ	-14636
の場	-14637
ブは	-14638
以内	-14639
北米	-14640
外出	-14641
景気	-14642
材の	-14643
海底	-14644
発の	-14645
稼ぐ	-14646
順位	-14647
あつて	-14648
ばれて	-14649
ヘビー	-14650
ヴェネ	-14651
初心者	-14652
告げた	-14653
慌てて	-14654
見かけ	-14655
選んだ	-14656
あまりの	-14657
ばかりが	-14658
初となる	-14659
言ってる	-14660
▁1980	-14661
なんていう	-14662
むずかしい	-14663
ものはない	-14664
ゆっくりと	-14665
のではないかという	-14666
けが	-14667
ほほ	-14668
めい	-14669
体操	-14670
八十	-14671
原料	-14672
友情	-14673
外見	-14674
小松	-14675
時効	-14676
遅延	-14677
～♪	-14678
/09	-14679
SEX	-14680
すがた	-14681
バブル	-14682
化が進	-14683
好んで	-14684
彼らを	-14685
様子で	-14686
無理に	-14687
理由を	-14688
矢張り	-14689
きれない	-14690
すつかり	-14691
その後に	-14692
を通って	-14693
手として	-14694
HC	-14695
HD	-14696
▁僕	-14697
きと	-14698
ちと	-14699
に招	-14700
に逢	-14701
一軍	-14702
値が	-14703
奴が	-14704
書簡	-14705
無言	-14706
老朽	-14707
質は	-14708
風を	-14709
1.5	-14710
が多数	-14711
ご了承	-14712
っとり	-14713
カテゴ	-14714
モニー	-14715
切れる	-14716
歴史の	-14717
父親が	-14718
生れた	-14719
著しい	-14720
長距離	-14721
高める	-14722
▁多くの	-14723
出されて	-14724
当初から	-14725
私はその	-14726
。1980	-14727
わっていた	-14728
をしており	-14729
必要があります	-14730
▁セ	-14731
くく	-14732
ばあ	-14733
を願	-14734
ゼー	-14735
ホロ	-14736
乗組	-14737
変り	-14738
官房	-14739
手拭	-14740
指の	-14741
涙が	-14742
男で	-14743
発注	-14744
盤の	-14745
育児	-14746
胸の	-14747
解約	-14748
辿り	-14749
110	-14750
▁まぁ	-14751
あちら	-14752
すこと	-14753
をのぞ	-14754
両方の	-14755
高度な	-14756
を記録し	-14757
殺される	-14758
わなければ	-14759
少なかった	-14760
追加された	-14761
ることができます	-14762
ざん	-14763
ジラ	-14764
前述	-14765
島で	-14766
差異	-14767
心境	-14768
恋の	-14769
持て	-14770
書斎	-14771
王立	-14772
飛躍	-14773
ick	-14774
れます	-14775
ジング	-14776
一人は	-14777
人口の	-14778
勝った	-14779
広がる	-14780
方法が	-14781
活動が	-14782
進んだ	-14783
いますし	-14784
なくちゃ	-14785
可能性が	-14786
自分には	-14787
その中には	-14788
におすすめ	-14789
ようだった	-14790
刊行された	-14791
間違いない	-14792
ということに	-14793
クライアント	-14794
お手	-14795
ぱり	-14796
バの	-14797
不在	-14798
勧告	-14799
属の	-14800
式は	-14801
決済	-14802
生態	-14803
補佐	-14804
近畿	-14805
陥落	-14806
ame	-14807
こそは	-14808
ちょい	-14809
は他の	-14810
を希望	-14811
サリー	-14812
仕上げ	-14813
向きに	-14814
感染症	-14815
横浜市	-14816
決める	-14817
じていた	-14818
成立した	-14819
これからは	-14820
できるので	-14821
に基づいた	-14822
出版された	-14823
含まれていた	-14824
えぬ	-14825
つね	-14826
つ星	-14827
タグ	-14828
併設	-14829
便宜	-14830
側を	-14831
反面	-14832
回目	-14833
川と	-14834
排水	-14835
渡る	-14836
父と	-14837
玄徳	-14838
筈だ	-14839
育ち	-14840
辛抱	-14841
這い	-14842
電報	-14843
に持ち	-14844
アラン	-14845
用した	-14846
瞬間に	-14847
くなつて	-14848
リゾート	-14849
気に入り	-14850
があったり	-14851
を使用する	-14852
メンバーが	-14853
ational	-14854
されることになった	-14855
きょ	-14856
チリ	-14857
原題	-14858
国と	-14859
形容	-14860
急遽	-14861
浮上	-14862
突撃	-14863
進展	-14864
骨格	-14865
づける	-14866
と伝え	-14867
を結び	-14868
メトロ	-14869
問題で	-14870
年連続	-14871
計画が	-14872
1984	-14873
さっそく	-14874
みずから	-14875
コンスタン	-14876
特徴である	-14877
エージェント	-14878
2.	-14879
ご覧	-14880
を固	-14881
を襲	-14882
下宿	-14883
参入	-14884
名も	-14885
地へ	-14886
天狗	-14887
尾張	-14888
引く	-14889
遅く	-14890
/12	-14891
▁アル	-14892
あらう	-14893
タール	-14894
主人が	-14895
結局は	-14896
が入って	-14897
が見えて	-14898
アラビア	-14899
テクノロ	-14900
▁2001	-14901
キーワード	-14902
気をつけて	-14903
したことから	-14904
になることを	-14905
▁古	-14906
っく	-14907
まに	-14908
キス	-14909
不利	-14910
予報	-14911
可決	-14912
奇怪	-14913
性も	-14914
独身	-14915
細川	-14916
船団	-14917
親類	-14918
ood	-14919
▁on	-14920
▁中国	-14921
しくも	-14922
クーデ	-14923
安全な	-14924
幅広く	-14925
抜け毛	-14926
正直に	-14927
求めた	-14928
登って	-14929
社会人	-14930
西日本	-14931
が入った	-14932
しかるに	-14933
なにしろ	-14934
労働者の	-14935
意味では	-14936
示された	-14937
驚くべき	-14938
ことが可能	-14939
せなかった	-14940
思いました	-14941
▁したがって	-14942
に変更された	-14943
を中心とする	-14944
さア	-14945
は出	-14946
オケ	-14947
之進	-14948
夜も	-14949
宣告	-14950
待遇	-14951
技能	-14952
破損	-14953
箱根	-14954
の家へ	-14955
ナイフ	-14956
ポンプ	-14957
勢調査	-14958
音楽を	-14959
して行く	-14960
ゆったり	-14961
っちゃった	-14962
サービスが	-14963
バージニア	-14964
ルーマニア	-14965
実施された	-14966
されることを	-14967
ソフトバンク	-14968
3.	-14969
ひの	-14970
事だ	-14971
拡散	-14972
握り	-14973
早期	-14974
本に	-14975
甲府	-14976
通路	-14977
郷土	-14978
いくつ	-14979
この上	-14980
すのは	-14981
と比べ	-14982
の手で	-14983
ドルを	-14984
共同で	-14985
名前が	-14986
違和感	-14987
フォロー	-14988
違いない	-14989
プレミアム	-14990
落ち着いた	-14991
を知っている	-14992
オールスター	-14993
スマートフォン	-14994
ものではありません	-14995
さか	-14996
イケ	-14997
一面	-14998
初演	-14999
呑み	-15000
妥協	-15001
幹事	-15002
拉致	-15003
王朝	-15004
疑う	-15005
の有無	-15006
を開設	-15007
クレイ	-15008
事実は	-15009
人との	-15010
尋ねた	-15011
結果が	-15012
送った	-15013
いますと	-15014
に乗った	-15015
今日まで	-15016
総理大臣	-15017
かも知れぬ	-15018
なんだから	-15019
をしてゐる	-15020
と断	-15021
ギア	-15022
タゴ	-15023
加熱	-15024
年春	-15025
後藤	-15026
荒れ	-15027
賃貸	-15028
高野	-15029
さうだ	-15030
ギフト	-15031
シウム	-15032
シェイ	-15033
ティス	-15034
居ない	-15035
求めて	-15036
疲れた	-15037
目的の	-15038
短期間	-15039
社から	-15040
神奈川	-15041
色々と	-15042
あるので	-15043
うるさい	-15044
じっくり	-15045
ためにも	-15046
またこの	-15047
オフィス	-15048
果たして	-15049
然とした	-15050
ましょうか	-15051
製造された	-15052
していたという	-15053
むす	-15054
中小	-15055
反撃	-15056
夜間	-15057
姿の	-15058
尚書	-15059
後を	-15060
志向	-15061
志望	-15062
志願	-15063
楽の	-15064
行が	-15065
運航	-15066
/03	-15067
ite	-15068
っちり	-15069
に飛び	-15070
るのを	-15071
を伸ば	-15072
伸びて	-15073
日々の	-15074
有難う	-15075
賞受賞	-15076
が起こり	-15077
ころから	-15078
つづいて	-15079
を見れば	-15080
センサー	-15081
国際的な	-15082
少くとも	-15083
考えれば	-15084
、1997	-15085
いつのまにか	-15086
ところがある	-15087
DJ	-15088
GI	-15089
ギタ	-15090
三千	-15091
中尉	-15092
伝記	-15093
内儀	-15094
切断	-15095
富岡	-15096
岡崎	-15097
悲惨	-15098
沈没	-15099
米友	-15100
過激	-15101
面会	-15102
Mac	-15103
▁Ar	-15104
にはお	-15105
をかく	-15106
チョウ	-15107
テンポ	-15108
廻って	-15109
感情を	-15110
椅子に	-15111
誰かに	-15112
郵便局	-15113
1975	-15114
陸上競技	-15115
こともなく	-15116
そのことを	-15117
スティング	-15118
気になった	-15119
シーズン終了	-15120
ファンタジー	-15121
ではないでしょうか	-15122
▁ベ	-15123
レバ	-15124
在り	-15125
天保	-15126
実力	-15127
岩の	-15128
彼氏	-15129
捉え	-15130
族が	-15131
概ね	-15132
樹の	-15133
ond	-15134
▁大学	-15135
その中	-15136
にはな	-15137
コチラ	-15138
向いた	-15139
奥さん	-15140
歌った	-15141
群馬県	-15142
自分と	-15143
苦しく	-15144
観光客	-15145
集まる	-15146
1983	-15147
▁22:	-15148
▁北海道	-15149
だけです	-15150
だろうし	-15151
フィール	-15152
割り当て	-15153
周年記念	-15154
描かれて	-15155
、1995	-15156
という形で	-15157
南アフリカ	-15158
日本テレビ	-15159
逮捕された	-15160
というように	-15161
というよりも	-15162
考えられている	-15163
インターナショナル	-15164
わき	-15165
を活	-15166
ボロ	-15167
ムシ	-15168
モチ	-15169
丸の	-15170
入門	-15171
冷却	-15172
協同	-15173
反響	-15174
史の	-15175
方と	-15176
樣子	-15177
異動	-15178
腹を	-15179
通報	-15180
道場	-15181
/06	-15182
▁なぜ	-15183
が強く	-15184
しかた	-15185
の後継	-15186
テラン	-15187
レンタ	-15188
平次の	-15189
継いで	-15190
長らく	-15191
お前さん	-15192
インドの	-15193
メンタル	-15194
積極的な	-15195
聞こえる	-15196
なんですよ	-15197
インディア	-15198
入っている	-15199
うま	-15200
の念	-15201
ガキ	-15202
ルネ	-15203
与え	-15204
乗る	-15205
亭主	-15206
伴う	-15207
気筒	-15208
汚い	-15209
腰痛	-15210
菊池	-15211
軍艦	-15212
邸宅	-15213
鎮圧	-15214
さほど	-15215
ックが	-15216
平気で	-15217
番目に	-15218
目から	-15219
起こり	-15220
せている	-15221
ましたよ	-15222
仕方ない	-15223
可能性は	-15224
。1970	-15225
そんな事を	-15226
を利用する	-15227
バランスを	-15228
理由として	-15229
スタンダード	-15230
ようとしている	-15231
(、	-15232
を連	-15233
両国	-15234
並み	-15235
作画	-15236
友好	-15237
命は	-15238
四つ	-15239
打つ	-15240
滑り	-15241
空中	-15242
簡易	-15243
虫の	-15244
風で	-15245
骨が	-15246
ゆうべ	-15247
両編成	-15248
▁ゲーム	-15249
家である	-15250
書き込み	-15251
したりする	-15252
たまらない	-15253
と思いながら	-15254
に入っている	-15255
されているので	-15256
プログラミング	-15257
と思っております	-15258
▁土	-15259
は上	-15260
るる	-15261
を説	-15262
んぼ	-15263
ノリ	-15264
ピラ	-15265
ヘエ	-15266
喜多	-15267
抗争	-15268
私的	-15269
誇り	-15270
駐屯	-15271
高山	-15272
鳥が	-15273
/04	-15274
を変え	-15275
代りに	-15276
環境の	-15277
個人的に	-15278
厚生労働	-15279
売りたい	-15280
望ましい	-15281
資本主義	-15282
気に入った	-15283
にかかわらず	-15284
わかっている	-15285
プロモーション	-15286
▁–	-15287
あう	-15288
えゝ	-15289
イは	-15290
ココ	-15291
勝て	-15292
命中	-15293
抜擢	-15294
決着	-15295
滅ぼ	-15296
神様	-15297
義の	-15298
麻酔	-15299
ork	-15300
――「	-15301
ガリア	-15302
コーン	-15303
住んで	-15304
立つて	-15305
してきて	-15306
と言つて	-15307
スカウト	-15308
セミナー	-15309
▁もっとも	-15310
、1994	-15311
いきました	-15312
間違いなく	-15313
ポジションは	-15314
▁ふ	-15315
▁和	-15316
ずく	-15317
で第	-15318
パワ	-15319
三国	-15320
三島	-15321
二千	-15322
利根	-15323
助成	-15324
寛永	-15325
復旧	-15326
段の	-15327
洗面	-15328
満州	-15329
ガラツ	-15330
トマト	-15331
ミルク	-15332
以後は	-15333
呟いた	-15334
外務省	-15335
寄せる	-15336
未来の	-15337
極端に	-15338
気づき	-15339
相当な	-15340
職員の	-15341
記事が	-15342
▁今まで	-15343
らしいが	-15344
アナログ	-15345
子さんは	-15346
。2002	-15347
がないから	-15348
していただけ	-15349
CC	-15350
TE	-15351
ヒン	-15352
マケ	-15353
乱暴	-15354
事と	-15355
品が	-15356
控訴	-15357
新作	-15358
本願	-15359
規約	-15360
還元	-15361
領の	-15362
馬に	-15363
-15	-15364
ING	-15365
この点	-15366
の動き	-15367
の成績	-15368
の文字	-15369
ませる	-15370
スタル	-15371
人間を	-15372
参考に	-15373
姿を見	-15374
広島県	-15375
栃木県	-15376
法学部	-15377
空気が	-15378
orld	-15379
ができた	-15380
は自分の	-15381
気をつけ	-15382
発展した	-15383
ったりして	-15384
どこまでも	-15385
衆議院議員総選挙	-15386
UP	-15387
af	-15388
▁藤	-15389
イの	-15390
安値	-15391
定番	-15392
家や	-15393
摩擦	-15394
水域	-15395
界に	-15396
話も	-15397
諦め	-15398
領主	-15399
からう	-15400
と表現	-15401
もしも	-15402
を放送	-15403
ナチス	-15404
乏しい	-15405
学校は	-15406
工事の	-15407
言える	-15408
記した	-15409
部屋を	-15410
▁23:	-15411
いっそう	-15412
これでは	-15413
を読んだ	-15414
くなります	-15415
ことによる	-15416
するもので	-15417
だったのか	-15418
として利用	-15419
早稲田大学	-15420
ものであるが	-15421
De	-15422
▁半	-15423
むね	-15424
ノス	-15425
万年	-15426
予期	-15427
傑作	-15428
債権	-15429
探索	-15430
水着	-15431
浅い	-15432
滑走	-15433
講談	-15434
込め	-15435
野生	-15436
隻の	-15437
)▁0	-15438
▁以前	-15439
▁昭和	-15440
おどろ	-15441
がまた	-15442
きいて	-15443
に依存	-15444
メリー	-15445
大切に	-15446
攻撃を	-15447
料金が	-15448
望遠鏡	-15449
目立つ	-15450
精神的	-15451
英語で	-15452
視聴率	-15453
食事の	-15454
が発生し	-15455
くらいで	-15456
などして	-15457
シルバー	-15458
ドイツ語	-15459
リングの	-15460
ところまで	-15461
センターの	-15462
ではないので	-15463
の一つとして	-15464
BI	-15465
▁若	-15466
の土	-15467
学士	-15468
幅が	-15469
愛国	-15470
数え	-15471
氣の	-15472
高松	-15473
ass	-15474
きたが	-15475
こうと	-15476
ガラッ	-15477
ツィア	-15478
不意に	-15479
写真は	-15480
心理学	-15481
最新の	-15482
空気を	-15483
いたのは	-15484
ができて	-15485
と言うと	-15486
のですね	-15487
かったです	-15488
に成功した	-15489
のできない	-15490
わたくしの	-15491
メンバーは	-15492
チームメイト	-15493
新型コロナウ	-15494
▁それにしても	-15495
場合がございます	-15496
1:	-15497
HI	-15498
くじ	-15499
に置	-15500
の森	-15501
ジロ	-15502
勾配	-15503
四月	-15504
国産	-15505
復元	-15506
猫の	-15507
芸人	-15508
薔薇	-15509
運送	-15510
道で	-15511
鼻の	-15512
が入る	-15513
と契約	-15514
に合格	-15515
を推進	-15516
ボーン	-15517
定めて	-15518
状況は	-15519
終えた	-15520
した後に	-15521
そうだが	-15522
を知った	-15523
されるのは	-15524
向上させる	-15525
いも	-15526
を思	-15527
傍ら	-15528
凄く	-15529
分る	-15530
単語	-15531
変え	-15532
奇跡	-15533
帝の	-15534
急な	-15535
折角	-15536
格差	-15537
清潔	-15538
港湾	-15539
牛の	-15540
▁cm	-15541
あがり	-15542
を名乗	-15543
を設定	-15544
ウィー	-15545
ストは	-15546
セリフ	-15547
用する	-15548
集める	-15549
そんなら	-15550
に連れて	-15551
労働組合	-15552
子供たち	-15553
定められた	-15554
HT	-15555
お見	-15556
ぶち	-15557
もて	-15558
容量	-15559
小路	-15560
憂鬱	-15561
敗退	-15562
欲求	-15563
石器	-15564
群衆	-15565
赤く	-15566
RNA	-15567
が登場	-15568
に昇進	-15569
はずだ	-15570
を描き	-15571
を装備	-15572
オンの	-15573
周波数	-15574
外国の	-15575
寄った	-15576
描いて	-15577
消費者	-15578
翌日の	-15579
▁あなた	-15580
くださる	-15581
したのだ	-15582
だいたい	-15583
ちよつと	-15584
になるが	-15585
、1992	-15586
。2001	-15587
わけである	-15588
を明らかに	-15589
並んでいる	-15590
込まれている	-15591
れで	-15592
ドの	-15593
五年	-15594
八の	-15595
危惧	-15596
咲く	-15597
広域	-15598
指輪	-15599
案を	-15600
特攻	-15601
調の	-15602
も早く	-15603
会議で	-15604
増える	-15605
嬉しく	-15606
頼んで	-15607
のあった	-15608
世紀後半	-15609
国勢調査	-15610
屋根修理	-15611
役として	-15612
日本人が	-15613
立場から	-15614
まちづくり	-15615
スペインの	-15616
影響を与えた	-15617
しているような	-15618
がは	-15619
下す	-15620
助の	-15621
動脈	-15622
化け	-15623
技師	-15624
洗浄	-15625
臆病	-15626
船長	-15627
角度	-15628
討伐	-15629
豊臣	-15630
通の	-15631
郷里	-15632
-17	-15633
act	-15634
▁高校	-15635
お風呂	-15636
ちやん	-15637
をやり	-15638
セーブ	-15639
列車の	-15640
横須賀	-15641
発する	-15642
青年の	-15643
Play	-15644
の一部が	-15645
ドレスの	-15646
何もかも	-15647
打ち上げ	-15648
気がして	-15649
スタイルを	-15650
されるという	-15651
ax	-15652
▁★	-15653
。。	-15654
やん	-15655
パチ	-15656
夫妻	-15657
官吏	-15658
支店	-15659
木造	-15660
洗礼	-15661
表題	-15662
軒の	-15663
集会	-15664
首脳	-15665
たりと	-15666
に見舞	-15667
サーチ	-15668
別れて	-15669
映画館	-15670
母親が	-15671
沖縄県	-15672
沿いの	-15673
第一次	-15674
感じです	-15675
それぞれに	-15676
として使用	-15677
に向かった	-15678
あふ	-15679
らな	-15680
ピオ	-15681
学年	-15682
寝台	-15683
封建	-15684
州で	-15685
改訂	-15686
救急	-15687
東方	-15688
松山	-15689
益々	-15690
硝子	-15691
肉を	-15692
茶の	-15693
財源	-15694
ace	-15695
この世	-15696
さまで	-15697
を伴う	-15698
ネディ	-15699
ブリュ	-15700
単行本	-15701
子会社	-15702
にお願い	-15703
わないで	-15704
必要はない	-15705
▁フ	-15706
でる	-15707
に終	-15708
はっ	-15709
一刻	-15710
上杉	-15711
任期	-15712
何年	-15713
吉川	-15714
平面	-15715
性愛	-15716
愛想	-15717
武者	-15718
狩猟	-15719
硬貨	-15720
隊を	-15721
静か	-15722
が入り	-15723
の利用	-15724
の生活	-15725
をおこ	-15726
を促進	-15727
を研究	-15728
戦った	-15729
払って	-15730
特徴は	-15731
返って	-15732
顔つき	-15733
...(	-15734
いちいち	-15735
の一人が	-15736
ふるさと	-15737
を集めて	-15738
シンボル	-15739
ホルモン	-15740
モデルを	-15741
発表され	-15742
しかしこの	-15743
なんだけど	-15744
形成された	-15745
"」	-15746
もど	-15747
よさ	-15748
アポ	-15749
エビ	-15750
オト	-15751
オロ	-15752
一回	-15753
務め	-15754
増や	-15755
宝塚	-15756
役を	-15757
浜松	-15758
症候	-15759
童貞	-15760
米軍	-15761
蝋燭	-15762
▁ああ	-15763
うえに	-15764
かなぁ	-15765
が完成	-15766
に向け	-15767
不動産	-15768
人々に	-15769
僕には	-15770
岐阜県	-15771
所属の	-15772
渡した	-15773
アトラン	-15774
バラバラ	-15775
引き起こ	-15776
言えない	-15777
▁ですから	-15778
だけれども	-15779
がついている	-15780
示されている	-15781
KE	-15782
はと	-15783
は新	-15784
わよ	-15785
サギ	-15786
仔細	-15787
堆積	-15788
星が	-15789
知れ	-15790
羽の	-15791
職を	-15792
草履	-15793
露出	-15794
たんに	-15795
とかで	-15796
に記載	-15797
むこう	-15798
らって	-15799
テニス	-15800
ディナ	-15801
一週間	-15802
商店街	-15803
市では	-15804
新聞社	-15805
記事の	-15806
遥かに	-15807
お父さん	-15808
どこかの	-15809
らないで	-15810
出て来た	-15811
であったり	-15812
ほとんどは	-15813
までもない	-15814
ブルジョア	-15815
効果がある	-15816
になつてゐる	-15817
だく	-15818
は行	-15819
を講	-15820
ルク	-15821
ヵ月	-15822
付与	-15823
元素	-15824
全長	-15825
奥様	-15826
店員	-15827
強盗	-15828
政官	-15829
秋に	-15830
腹に	-15831
賛同	-15832
路面	-15833
雪は	-15834
MAX	-15835
ありと	-15836
を選び	-15837
ルーズ	-15838
中心に	-15839
充分に	-15840
引いて	-15841
無関係	-15842
直前の	-15843
が初めて	-15844
とも呼ば	-15845
利用して	-15846
子さんの	-15847
知り合い	-15848
該当する	-15849
、1996	-15850
されるため	-15851
つり	-15852
の火	-15853
ゴロ	-15854
公衆	-15855
大蔵	-15856
旧制	-15857
朝食	-15858
洗練	-15859
立地	-15860
笠原	-15861
自家	-15862
譲り	-15863
賞の	-15864
跳ね	-15865
CPU	-15866
じゃん	-15867
まつて	-15868
ダムの	-15869
一時は	-15870
与える	-15871
初出場	-15872
男女の	-15873
貰った	-15874
雑誌の	-15875
1969	-15876
お互いに	-15877
すような	-15878
のほうへ	-15879
らないと	-15880
を食べて	-15881
クラブの	-15882
購入した	-15883
ですからね	-15884
に対応する	-15885
スプリング	-15886
が発表された	-15887
のでしょうが	-15888
Sc	-15889
aw	-15890
が二	-15891
きん	-15892
に照	-15893
ギス	-15894
ズレ	-15895
ヤツ	-15896
国語	-15897
坐り	-15898
手順	-15899
水路	-15900
足は	-15901
顔色	-15902
(11	-15903
/07	-15904
こりゃ	-15905
じない	-15906
に相談	-15907
の手を	-15908
を発売	-15909
グリー	-15910
ビルの	-15911
会える	-15912
掛かり	-15913
死した	-15914
種々の	-15915
通った	-15916
にわかに	-15917
に応じた	-15918
ファンが	-15919
ベースの	-15920
、1991	-15921
出来るだけ	-15922
わけでございます	-15923
▁月	-15924
に来	-15925
ロは	-15926
上品	-15927
予め	-15928
仮名	-15929
悉く	-15930
楽に	-15931
理屈	-15932
申告	-15933
私共	-15934
絞り	-15935
西側	-15936
速い	-15937
長編	-15938
▁00	-15939
に満ち	-15940
に直接	-15941
コット	-15942
スリー	-15943
マント	-15944
不愉快	-15945
兵衛の	-15946
夫人が	-15947
日放送	-15948
能力の	-15949
関わり	-15950
するべき	-15951
ソニック	-15952
ソーラー	-15953
早くから	-15954
気がした	-15955
ってもいい	-15956
回衆議院議員総選挙	-15957
▁ナ	-15958
なほ	-15959
イノ	-15960
ソリ	-15961
ラド	-15962
冷凍	-15963
宝石	-15964
広が	-15965
断念	-15966
条第	-15967
きった	-15968
を可能	-15969
人口は	-15970
多大な	-15971
日の対	-15972
記事は	-15973
近くで	-15974
▁本作は	-15975
ているが	-15976
はいない	-15977
を立てた	-15978
メロディ	-15979
ローマの	-15980
切り替え	-15981
がかかって	-15982
と考えていた	-15983
東日本大震災	-15984
NU	-15985
に充	-15986
バグ	-15987
モテ	-15988
人情	-15989
在位	-15990
大に	-15991
得て	-15992
酷い	-15993
雑貨	-15994
順次	-15995
おくれ	-15996
きれい	-15997
へない	-15998
コロナ	-15999
メカニ	-16000
不自由	-16001
価格は	-16002
兄さん	-16003
批評家	-16004
歸つて	-16005
現実に	-16006
都市圏	-16007
頭を下	-16008
1982	-16009
が欲しい	-16010
どこでも	-16011
▁1970	-16012
であろうが	-16013
アメリカで	-16014
エリザベス	-16015
嬉しいです	-16016
少なからず	-16017
であったという	-16018
に隠	-16019
アベ	-16020
ズを	-16021
半数	-16022
坂本	-16023
東急	-16024
民営	-16025
発着	-16026
給付	-16027
雄の	-16028
雨に	-16029
食物	-16030
黒人	-16031
▁とり	-16032
から約	-16033
ものや	-16034
エンタ	-16035
公式戦	-16036
好みの	-16037
いられる	-16038
おまけに	-16039
すために	-16040
ちゃった	-16041
スカート	-16042
ダンサー	-16043
届かない	-16044
くださった	-16045
も存在する	-16046
しないように	-16047
じゅ	-16048
区に	-16049
城下	-16050
婚姻	-16051
打点	-16052
払う	-16053
拳銃	-16054
断片	-16055
暗く	-16056
火星	-16057
細く	-16058
越後	-16059
開館	-16060
高田	-16061
▁少し	-16062
を意味	-16063
イライ	-16064
何かを	-16065
少女の	-16066
江戸の	-16067
落して	-16068
薄暗い	-16069
費用は	-16070
述べる	-16071
ence	-16072
年以降は	-16073
度の高い	-16074
にかけての	-16075
しようという	-16076
アメリカでは	-16077
プラスチック	-16078
明らかになった	-16079
:"	-16080
CA	-16081
つら	-16082
ツル	-16083
ヶ谷	-16084
三好	-16085
八郎	-16086
拝見	-16087
毎晩	-16088
演習	-16089
焼失	-16090
納言	-16091
送る	-16092
達を	-16093
-16	-16094
ool	-16095
きいた	-16096
さくら	-16097
につけ	-16098
余りに	-16099
大使館	-16100
東京で	-16101
止まり	-16102
無数の	-16103
電車の	-16104
が増える	-16105
すべてを	-16106
なかろう	-16107
なんとも	-16108
リーグ戦	-16109
初めから	-16110
失われた	-16111
登場人物	-16112
集まった	-16113
それなりに	-16114
になるまで	-16115
歩いていた	-16116
とんでもない	-16117
考えられない	-16118
Hz	-16119
ni	-16120
▁=	-16121
うわ	-16122
の南	-16123
の香	-16124
らぎ	-16125
主力	-16126
付加	-16127
指を	-16128
沢の	-16129
立憲	-16130
降板	-16131
▁先日	-16132
ありて	-16133
きって	-16134
さから	-16135
に到達	-16136
に着手	-16137
アーム	-16138
グルメ	-16139
ディン	-16140
ニーの	-16141
ピッチ	-16142
一本の	-16143
専門の	-16144
追いか	-16145
電話で	-16146
1972	-16147
1973	-16148
の方では	-16149
提案した	-16150
月からは	-16151
、1989	-16152
ヴァイオリン	-16153
っぺ	-16154
と第	-16155
に下	-16156
に流	-16157
は後	-16158
れい	-16159
を乗	-16160
之介	-16161
公的	-16162
冷え	-16163
奉仕	-16164
島が	-16165
崇拝	-16166
懐中	-16167
所長	-16168
支度	-16169
暗黒	-16170
模型	-16171
横綱	-16172
樹脂	-16173
比率	-16174
言動	-16175
電磁	-16176
駿河	-16177
シズム	-16178
スミス	-16179
ネルを	-16180
分野で	-16181
前にも	-16182
寄せた	-16183
捨てた	-16184
結果を	-16185
行為を	-16186
諦めて	-16187
超える	-16188
(*▁́	-16189
そのほか	-16190
と思われ	-16191
なのだが	-16192
の間には	-16193
を挙げて	-16194
ケータイ	-16195
フロリダ	-16196
写真を撮	-16197
思われた	-16198
近年では	-16199
優れている	-16200
欠かせない	-16201
おち	-16202
に備	-16203
に堪	-16204
やと	-16205
を自	-16206
クビ	-16207
シグ	-16208
テオ	-16209
叔母	-16210
地と	-16211
大公	-16212
妥当	-16213
果実	-16214
楽園	-16215
活字	-16216
至極	-16217
虚偽	-16218
表紙	-16219
謎の	-16220
追求	-16221
追跡	-16222
降下	-16223
いささ	-16224
にこだ	-16225
の制作	-16226
わしが	-16227
ピッタ	-16228
土地を	-16229
増えた	-16230
見込み	-16231
重なる	-16232
と称する	-16233
のだらう	-16234
セカンド	-16235
マガジン	-16236
マラソン	-16237
サービスは	-16238
申し上げます	-16239
行われている	-16240
さぞ	-16241
何度	-16242
党が	-16243
十両	-16244
外套	-16245
工芸	-16246
有限	-16247
補強	-16248
足に	-16249
あっち	-16250
せると	-16251
その際	-16252
と語り	-16253
を構築	-16254
ベルタ	-16255
メット	-16256
一度に	-16257
会って	-16258
冷蔵庫	-16259
列車が	-16260
審議会	-16261
思つた	-16262
抜ける	-16263
滋賀県	-16264
而して	-16265
開けて	-16266
apan	-16267
に戻って	-16268
クトリア	-16269
フィギュ	-16270
メイソン	-16271
しているか	-16272
と思ったが	-16273
シーズンを	-16274
したことにより	-16275
えっ	-16276
お得	-16277
と共	-16278
デラ	-16279
トは	-16280
休養	-16281
固有	-16282
州刺	-16283
政の	-16284
欠陥	-16285
貫通	-16286
農林	-16287
送信	-16288
yst	-16289
いやな	-16290
そなた	-16291
ゆかり	-16292
セラー	-16293
ヨハン	-16294
価格で	-16295
博士が	-16296
国内で	-16297
届いた	-16298
帰りに	-16299
御存じ	-16300
赤ん坊	-16301
長時間	-16302
▁100	-16303
▁かつて	-16304
このごろ	-16305
のが普通	-16306
を問わず	-16307
ウエスト	-16308
見ていた	-16309
報じられた	-16310
なければならなかった	-16311
▁キ	-16312
が施	-16313
だる	-16314
らも	-16315
イヌ	-16316
エム	-16317
ヘリ	-16318
今に	-16319
大気	-16320
寝床	-16321
思案	-16322
民事	-16323
混同	-16324
父に	-16325
至る	-16326
親交	-16327
論は	-16328
いじめ	-16329
が一つ	-16330
その点	-16331
わけだ	-16332
を打つ	-16333
カーブ	-16334
コック	-16335
ブロン	-16336
変える	-16337
後者は	-16338
教えた	-16339
海外の	-16340
銀行の	-16341
▁なので	-16342
に向かい	-16343
らっしゃ	-16344
を学んだ	-16345
性がある	-16346
らなかつた	-16347
フェスティ	-16348
ものであろう	-16349
アルゼンチン	-16350
ホールディング	-16351
▁信	-16352
▁子	-16353
きな	-16354
シベ	-16355
ノミ	-16356
ポチ	-16357
告知	-16358
因縁	-16359
局が	-16360
市と	-16361
欲望	-16362
水上	-16363
濃厚	-16364
祝福	-16365
腹が	-16366
金庫	-16367
しめた	-16368
ちがう	-16369
に利用	-16370
わりの	-16371
ヤーの	-16372
ローラ	-16373
小学生	-16374
番号は	-16375
に達した	-16376
ふたりの	-16377
わたしも	-16378
ニコニコ	-16379
フィット	-16380
年度から	-16381
性のある	-16382
帰ってきた	-16383
ございまして	-16384
のであろうか	-16385
の旅	-16386
去年	-16387
噴火	-16388
姉の	-16389
常務	-16390
度い	-16391
式で	-16392
御飯	-16393
歯を	-16394
波が	-16395
無効	-16396
要領	-16397
近鉄	-16398
重複	-16399
the	-16400
▁映画	-16401
お話し	-16402
を無視	-16403
を背負	-16404
サント	-16405
チェル	-16406
ドール	-16407
以降に	-16408
便利な	-16409
状況が	-16410
階級の	-16411
あちこち	-16412
かされた	-16413
という説	-16414
と書いて	-16415
ものでも	-16416
付き合い	-16417
責任を負	-16418
と思うので	-16419
のためには	-16420
ギタリスト	-16421
だったのです	-16422
されることとなった	-16423
することができない	-16424
▁秋	-16425
てえ	-16426
余の	-16427
庁の	-16428
待機	-16429
方程	-16430
欠点	-16431
知能	-16432
訂正	-16433
魔術	-16434
むかし	-16435
ものゝ	-16436
アール	-16437
バスト	-16438
ミステ	-16439
同一の	-16440
回って	-16441
女性と	-16442
歳から	-16443
空き家	-16444
進めて	-16445
と思える	-16446
ダニエル	-16447
性の高い	-16448
こととなる	-16449
にすぎない	-16450
シンプルな	-16451
ターミナル	-16452
ニュージーランド	-16453
Th	-16454
ai	-16455
▁ヒ	-16456
いづ	-16457
こら	-16458
は別	-16459
まう	-16460
フン	-16461
リハ	-16462
了解	-16463
印度	-16464
国有	-16465
地や	-16466
小泉	-16467
幅の	-16468
幾何	-16469
王妃	-16470
落し	-16471
説教	-16472
▁子供	-16473
と批判	-16474
の間を	-16475
ぶりで	-16476
セッツ	-16477
ビーム	-16478
フェイ	-16479
ートン	-16480
何事も	-16481
使い方	-16482
周りに	-16483
市出身	-16484
背景に	-16485
を加えて	-16486
ブルック	-16487
ラッシュ	-16488
使われた	-16489
所有する	-16490
ソーシャル	-16491
ことはありません	-16492
」「............」「	-16493
あぶ	-16494
が本	-16495
づき	-16496
ッペ	-16497
作を	-16498
地味	-16499
水で	-16500
然う	-16501
球場	-16502
盗み	-16503
衣裳	-16504
LED	-16505
▁単身	-16506
ご利用	-16507
に従う	-16508
ボルト	-16509
一時間	-16510
二階の	-16511
大学は	-16512
年ほど	-16513
明けて	-16514
活動に	-16515
純粋な	-16516
vers	-16517
きょうは	-16518
サスペン	-16519
、1993	-16520
で生まれた	-16521
まいりました	-16522
ることができた	-16523
-8	-16524
br	-16525
せえ	-16526
の種	-16527
ツォ	-16528
ネの	-16529
ハミ	-16530
互換	-16531
享保	-16532
俺も	-16533
値は	-16534
山と	-16535
文壇	-16536
最中	-16537
王に	-16538
素直	-16539
鳥居	-16540
ica	-16541
▁より	-16542
、50	-16543
を差し	-16544
を計画	-16545
ベニア	-16546
ライヴ	-16547
価格が	-16548
小説家	-16549
広がり	-16550
私達の	-16551
だろうな	-16552
を重ねて	-16553
キラキラ	-16554
ボタンを	-16555
そうなので	-16556
ともいえる	-16557
にわたって	-16558
に比べると	-16559
いかなかった	-16560
Station	-16561
センチメートル	-16562
の連	-16563
へ入	-16564
予言	-16565
入札	-16566
出資	-16567
幅な	-16568
染色	-16569
禁じ	-16570
逃走	-16571
電化	-16572
ABC	-16573
▁En	-16574
▁結局	-16575
▁若い	-16576
』("	-16577
いてる	-16578
に打ち	-16579
の主題	-16580
エール	-16581
ゲージ	-16582
マリオ	-16583
マンド	-16584
分った	-16585
分の一	-16586
初めに	-16587
立場を	-16588
英国の	-16589
見よう	-16590
買える	-16591
する形で	-16592
カタログ	-16593
慶應義塾	-16594
に関連する	-16595
んですもの	-16596
オーディオ	-16597
キャスター	-16598
デザインは	-16599
紹介された	-16600
続いている	-16601
させるために	-16602
すじ	-16603
せき	-16604
の力	-16605
をば	-16606
を掲	-16607
を現	-16608
ニル	-16609
ノフ	-16610
住友	-16611
余地	-16612
密着	-16613
屋を	-16614
ier	-16615
おめえ	-16616
たいと	-16617
に見て	-16618
の一員	-16619
は大変	-16620
を探し	-16621
ハルト	-16622
ユーゴ	-16623
同年に	-16624
建てた	-16625
影響で	-16626
掛かる	-16627
沢山の	-16628
真剣に	-16629
こいつは	-16630
するなら	-16631
を備えた	-16632
カロリー	-16633
トレンド	-16634
呼びかけ	-16635
真面目に	-16636
似たような	-16637
グラフィック	-16638
じゃありません	-16639
SL	-16640
sp	-16641
up	-16642
くさ	-16643
包括	-16644
尾の	-16645
差で	-16646
年収	-16647
心と	-16648
技巧	-16649
捕獲	-16650
致し	-16651
裕福	-16652
解剖	-16653
頂く	-16654
を保持	-16655
ナード	-16656
小屋の	-16657
息子が	-16658
方面の	-16659
有効な	-16660
準優勝	-16661
者たち	-16662
詳細な	-16663
がついた	-16664
せいぜい	-16665
にもなり	-16666
キスタン	-16667
セックス	-16668
タイムズ	-16669
世界中の	-16670
出会った	-16671
ことですが	-16672
と言えます	-16673
にかかって	-16674
イデオロギー	-16675
することになり	-16676
▁吉	-16677
でた	-16678
コフ	-16679
マキ	-16680
台所	-16681
変身	-16682
多彩	-16683
居酒	-16684
於て	-16685
聴衆	-16686
けども	-16687
けりゃ	-16688
とって	-16689
のお客	-16690
の名は	-16691
らった	-16692
を付け	-16693
んだい	-16694
リウス	-16695
久しく	-16696
初勝利	-16697
大学生	-16698
姉さん	-16699
形式の	-16700
日本軍	-16701
日間の	-16702
盛んに	-16703
身体が	-16704
1978	-16705
すことは	-16706
に限らず	-16707
を聞いた	-16708
イースト	-16709
コンテナ	-16710
ポケモン	-16711
我が家の	-16712
理由から	-16713
から見れば	-16714
思いますが	-16715
表示される	-16716
なのではない	-16717
スケジュール	-16718
ぢやありませんか	-16719
Al	-16720
まぬ	-16721
ヨウ	-16722
他社	-16723
何で	-16724
寿司	-16725
巻く	-16726
慰謝	-16727
戦力	-16728
標的	-16729
次回	-16730
衝動	-16731
誘い	-16732
900	-16733
お待ち	-16734
と一緒	-16735
ゐたが	-16736
アニア	-16737
サイク	-16738
バーの	-16739
付近の	-16740
医師の	-16741
即座に	-16742
叔父の	-16743
属する	-16744
巧みに	-16745
暖かい	-16746
民族の	-16747
苦手な	-16748
込める	-16749
面には	-16750
うために	-16751
を抑える	-16752
事務所の	-16753
構わない	-16754
、2024	-16755
マニュアル	-16756
公式サイト	-16757
していたことが	-16758
なければいけない	-16759
OW	-16760
ux	-16761
セフ	-16762
反動	-16763
大津	-16764
山下	-16765
海域	-16766
翌朝	-16767
詩集	-16768
贈り	-16769
遣い	-16770
開く	-16771
間が	-16772
阿部	-16773
院は	-16774
NBA	-16775
くちゃ	-16776
を失い	-16777
ミラー	-16778
信ずる	-16779
別れる	-16780
用いた	-16781
距離を	-16782
車両は	-16783
その通り	-16784
なところ	-16785
はとても	-16786
シンガー	-16787
右衛門は	-16788
していたら	-16789
のであらう	-16790
ものでした	-16791
んでいたが	-16792
タブレット	-16793
レーシング	-16794
にちがいない	-16795
を使っている	-16796
ざるを得なかった	-16797
まき	-16798
丸は	-16799
主流	-16800
代行	-16801
勧誘	-16802
合は	-16803
四方	-16804
大橋	-16805
娯楽	-16806
宮城	-16807
役人	-16808
応え	-16809
春は	-16810
海水	-16811
特異	-16812
田原	-16813
美の	-16814
質が	-16815
鉛筆	-16816
電流	-16817
/05	-16818
▁本作	-16819
さきに	-16820
さした	-16821
に押し	-16822
に苦し	-16823
の強い	-16824
ようす	-16825
れたが	-16826
兵衛が	-16827
告げる	-16828
料金を	-16829
時まで	-16830
温かい	-16831
若旦那	-16832
道路の	-16833
雨が降	-16834
黄色い	-16835
をつれて	-16836
アンテナ	-16837
ウィーク	-16838
ツイート	-16839
出来ます	-16840
囲まれた	-16841
盛り上が	-16842
▁これまで	-16843
、1950	-16844
。2023	-16845
といったら	-16846
を構成する	-16847
ラインナップ	-16848
することがある	-16849
場合によっては	-16850
(0	-16851
さす	-16852
の作	-16853
ヶ岳	-16854
出走	-16855
匹の	-16856
場へ	-16857
夫に	-16858
敷設	-16859
時折	-16860
液晶	-16861
王が	-16862
神に	-16863
粒子	-16864
花粉	-16865
薬物	-16866
講習	-16867
録画	-16868
ですな	-16869
クイズ	-16870
尋ねて	-16871
幾度も	-16872
政権の	-16873
肖像画	-16874
あたしは	-16875
していき	-16876
その時に	-16877
っとした	-16878
は大きく	-16879
チームを	-16880
ナチュレ	-16881
的であり	-16882
ed▁by	-16883
▁とはいえ	-16884
これに対し	-16885
コンクール	-16886
結成された	-16887
と思われます	-16888
の文	-16889
タカ	-16890
一目	-16891
伊東	-16892
制裁	-16893
号が	-16894
変形	-16895
大島	-16896
罪の	-16897
聴く	-16898
能く	-16899
著者	-16900
部族	-16901
難民	-16902
▁さう	-16903
あがる	-16904
いつた	-16905
しさが	-16906
といて	-16907
なかの	-16908
を演じ	-16909
タント	-16910
云えば	-16911
仕方が	-16912
初めは	-16913
小田原	-16914
片付け	-16915
状態を	-16916
第二の	-16917
過ごし	-16918
お客様の	-16919
ばかりは	-16920
サプライ	-16921
ボールの	-16922
全体的に	-16923
評価する	-16924
雰囲気が	-16925
を得ている	-16926
テレビ番組	-16927
いよ	-16928
や小	-16929
を造	-16930
アキ	-16931
カブ	-16932
ギョ	-16933
パッ	-16934
リベ	-16935
低減	-16936
山へ	-16937
延伸	-16938
慶応	-16939
日目	-16940
木に	-16941
深さ	-16942
狼狽	-16943
福田	-16944
質を	-16945
辺に	-16946
關係	-16947
▁イン	-16948
つかぬ	-16949
なのが	-16950
に変化	-16951
に残る	-16952
の前身	-16953
を一つ	-16954
コンド	-16955
何やら	-16956
内から	-16957
夜明け	-16958
彼らに	-16959
抜いた	-16960
本物の	-16961
近づく	-16962
1977	-16963
が変わる	-16964
のを見た	-16965
をあけて	-16966
を得ない	-16967
ベテラン	-16968
システムが	-16969
チューセッツ	-16970
は白	-16971
アサ	-16972
カウ	-16973
丸い	-16974
像は	-16975
明に	-16976
立の	-16977
編曲	-16978
葡萄	-16979
間も	-16980
頭脳	-16981
man	-16982
おうと	-16983
がした	-16984
つしや	-16985
と改称	-16986
に参戦	-16987
の代表	-16988
の手段	-16989
は特に	-16990
サーバ	-16991
ブドウ	-16992
今にも	-16993
今後は	-16994
出来ず	-16995
生れて	-16996
研究は	-16997
社会に	-16998
自体の	-16999
ああいう	-17000
からこそ	-17001
が見えた	-17002
と聞いて	-17003
はさらに	-17004
ガーデン	-17005
日本人は	-17006
行方不明	-17007
なんという	-17008
に代わって	-17009
アクセント	-17010
信じている	-17011
働いていた	-17012
置いてある	-17013
ありましたが	-17014
ことになって	-17015
KA	-17016
〜」	-17017
の門	-17018
も同	-17019
を免	-17020
を全	-17021
タマ	-17022
バチ	-17023
不平	-17024
分泌	-17025
宰相	-17026
愚痴	-17027
氷河	-17028
理学	-17029
発覚	-17030
食卓	-17031
高の	-17032
▁良い	-17033
ちょこ	-17034
を送る	-17035
受け取	-17036
大久保	-17037
未だに	-17038
越して	-17039
どちらの	-17040
はじめる	-17041
日本国内	-17042
Apple	-17043
テレビ朝日	-17044
しようとしている	-17045
▁]	-17046
・2	-17047
住所	-17048
佐久	-17049
役は	-17050
投球	-17051
若き	-17052
に集中	-17053
れたら	-17054
ブロー	-17055
事件が	-17056
他人に	-17057
天文学	-17058
年後に	-17059
恐れて	-17060
放射線	-17061
次々に	-17062
部では	-17063
▁自分が	-17064
おられる	-17065
られても	-17066
るときは	-17067
をあげて	-17068
グレート	-17069
圧倒的な	-17070
きっかけで	-17071
変更された	-17072
見えなかった	-17073
指摘されている	-17074
GS	-17075
ME	-17076
ポツ	-17077
中川	-17078
偉い	-17079
冬季	-17080
北陸	-17081
家老	-17082
惚れ	-17083
敬意	-17084
日頃	-17085
案件	-17086
正解	-17087
派が	-17088
消極	-17089
犬が	-17090
用な	-17091
粗末	-17092
通学	-17093
遠藤	-17094
鳥羽	-17095
お世話	-17096
やたら	-17097
を見廻	-17098
を設け	-17099
を進め	-17100
アミノ	-17101
エルサ	-17102
タイガ	-17103
テージ	-17104
デント	-17105
バスが	-17106
交響曲	-17107
友人に	-17108
評価は	-17109
調子が	-17110
願いを	-17111
その前に	-17112
と呼んだ	-17113
と思えば	-17114
ばかりだ	-17115
みなさん	-17116
を残して	-17117
シャルル	-17118
並行して	-17119
説明した	-17120
いられない	-17121
すればいい	-17122
それだけの	-17123
っていった	-17124
してきました	-17125
と同じような	-17126
られてしまう	-17127
▁最	-17128
とる	-17129
に足	-17130
の遺	-17131
クソ	-17132
タナ	-17133
争う	-17134
二月	-17135
処女	-17136
哨戒	-17137
大小	-17138
実況	-17139
帝は	-17140
性で	-17141
慣習	-17142
本名	-17143
等級	-17144
複製	-17145
配達	-17146
麗な	-17147
▁編集	-17148
の違い	-17149
ブラジ	-17150
代表の	-17151
出場し	-17152
切れて	-17153
取り組	-17154
叫んで	-17155
向かう	-17156
大事に	-17157
強烈な	-17158
揃えて	-17159
熊本県	-17160
ちょいと	-17161
と感じた	-17162
幾つかの	-17163
者たちは	-17164
金融機関	-17165
雰囲気を	-17166
に出演した	-17167
のイメージ	-17168
をしました	-17169
っていうのは	-17170
などによって	-17171
しているうちに	-17172
ような気がします	-17173
そび	-17174
ねー	-17175
まみ	-17176
もも	-17177
シノ	-17178
ヤの	-17179
中島	-17180
人目	-17181
合法	-17182
応答	-17183
拷問	-17184
木材	-17185
本郷	-17186
漬け	-17187
無限	-17188
腹の	-17189
途上	-17190
130	-17191
▁st	-17192
で活躍	-17193
のこの	-17194
を強く	-17195
を拠点	-17196
ウムの	-17197
ワール	-17198
乗った	-17199
派手な	-17200
素早く	-17201
誤った	-17202
違いを	-17203
につけて	-17204
を発表し	-17205
ウィンド	-17206
ペンシル	-17207
マウント	-17208
今日では	-17209
相変らず	-17210
5,000	-17211
そのものは	-17212
はっきりと	-17213
るとともに	-17214
▁費用▁相場	-17215
ことであろう	-17216
こともあるが	-17217
するのである	-17218
ことができました	-17219
▁ガ	-17220
ダウ	-17221
ハナ	-17222
口径	-17223
喫煙	-17224
山陽	-17225
採択	-17226
新築	-17227
旗本	-17228
明は	-17229
犯行	-17230
率の	-17231
留め	-17232
皇太	-17233
破る	-17234
筑波	-17235
紋章	-17236
輝き	-17237
隊員	-17238
頭痛	-17239
の記録	-17240
インは	-17241
ターボ	-17242
メディ	-17243
帽子を	-17244
負けて	-17245
1968	-17246
▁ですが	-17247
けました	-17248
ここには	-17249
これでも	-17250
であつて	-17251
と云つた	-17252
カロライ	-17253
ノーベル	-17254
リンカー	-17255
相互作用	-17256
いくらでも	-17257
しますので	-17258
として活躍	-17259
出していた	-17260
年シーズン	-17261
デビューした	-17262
いただきました	-17263
▁て	-17264
▁万	-17265
の行	-17266
ネガ	-17267
三味	-17268
伯父	-17269
側近	-17270
公判	-17271
出生	-17272
多々	-17273
序盤	-17274
御殿	-17275
据え	-17276
改装	-17277
政務	-17278
数も	-17279
楕円	-17280
訳で	-17281
門は	-17282
閣僚	-17283
黒田	-17284
MLB	-17285
▁いい	-17286
いちど	-17287
が全く	-17288
しげな	-17289
で撮影	-17290
カルト	-17291
トンの	-17292
作りの	-17293
宗教的	-17294
密かに	-17295
綺麗に	-17296
記事で	-17297
1974	-17298
▁実際に	-17299
いますか	-17300
じゃなく	-17301
すことを	-17302
との間の	-17303
アシスト	-17304
ベランダ	-17305
制作した	-17306
そうだった	-17307
月にかけて	-17308
なくなっている	-17309
MB	-17310
MT	-17311
さば	-17312
でん	-17313
に座	-17314
カビ	-17315
カレ	-17316
世と	-17317
処へ	-17318
動詞	-17319
巡り	-17320
幸運	-17321
怪獣	-17322
柴田	-17323
決算	-17324
法学	-17325
海老	-17326
現行	-17327
表の	-17328
裏切	-17329
貯金	-17330
いまは	-17331
は主に	-17332
んだか	-17333
リーガ	-17334
乗って	-17335
子供に	-17336
映画を	-17337
部隊を	-17338
黄金の	-17339
が起こる	-17340
その代り	-17341
の方でも	-17342
をめぐる	-17343
エレベー	-17344
何かしら	-17345
国土交通	-17346
都市計画	-17347
。1998	-17348
しましても	-17349
ったような	-17350
一般的には	-17351
教育委員会	-17352
をもたらした	-17353
サッカー選手	-17354
がありましたが	-17355
販売されている	-17356
?』	-17357
おぼ	-17358
ごた	-17359
ごめ	-17360
の横	-17361
冷や	-17362
出逢	-17363
北方	-17364
号に	-17365
大野	-17366
失点	-17367
宮内	-17368
意匠	-17369
町へ	-17370
祈祷	-17371
蝦夷	-17372
部署	-17373
いるが	-17374
に組み	-17375
のちの	-17376
ベビー	-17377
双方の	-17378
場所が	-17379
大阪の	-17380
寄りの	-17381
意外な	-17382
新潟県	-17383
様子は	-17384
申上げ	-17385
表面に	-17386
違いが	-17387
青森県	-17388
1979	-17389
そうそう	-17390
の方には	-17391
ニッポン	-17392
設立され	-17393
高い評価	-17394
がなされた	-17395
されるべき	-17396
ボリューム	-17397
掲載された	-17398
相変わらず	-17399
とは言えない	-17400
▁千	-17401
ふざ	-17402
ろと	-17403
一月	-17404
双方	-17405
大隊	-17406
対称	-17407
山で	-17408
恒星	-17409
旨の	-17410
春秋	-17411
時と	-17412
曲線	-17413
書物	-17414
毛を	-17415
者だ	-17416
船で	-17417
血圧	-17418
ござん	-17419
は同じ	-17420
クロア	-17421
セルフ	-17422
ネズミ	-17423
バター	-17424
人にも	-17425
大型の	-17426
太陽の	-17427
構造の	-17428
気軽に	-17429
してます	-17430
してゆく	-17431
を介して	-17432
を引いて	-17433
エッセイ	-17434
スキャン	-17435
ヒトラー	-17436
力のある	-17437
描かれる	-17438
おもしろい	-17439
といえども	-17440
とも言える	-17441
チョコレート	-17442
ヘリコプター	-17443
バリエーション	-17444
Sp	-17445
こが	-17446
っ子	-17447
つぽ	-17448
の妻	-17449
を擁	-17450
クが	-17451
不信	-17452
在任	-17453
楽章	-17454
河岸	-17455
濡れ	-17456
葉を	-17457
藩士	-17458
賃金	-17459
除外	-17460
)▁-	-17461
iel	-17462
せざる	-17463
の無い	-17464
は全て	-17465
ゆくと	-17466
を待つ	-17467
を題材	-17468
ケード	-17469
商品が	-17470
女性を	-17471
少しく	-17472
異様な	-17473
速度が	-17474
頼んだ	-17475
ound	-17476
すように	-17477
ってある	-17478
というが	-17479
ブッシュ	-17480
内にある	-17481
もんだから	-17482
プレーヤー	-17483
次のような	-17484
系アメリカ	-17485
話を聞いて	-17486
なんでしょう	-17487
だと思いますが	-17488
おし	-17489
きき	-17490
せと	-17491
んば	-17492
ドは	-17493
中期	-17494
二軍	-17495
伊賀	-17496
位と	-17497
倒し	-17498
商工	-17499
基金	-17500
堤防	-17501
後輩	-17502
必死	-17503
捧げ	-17504
攻勢	-17505
新造	-17506
服の	-17507
歌謡	-17508
祭の	-17509
窓口	-17510
花火	-17511
衰弱	-17512
計測	-17513
起る	-17514
預け	-17515
顏を	-17516
鳴き	-17517
`*)	-17518
che	-17519
▁40	-17520
あのお	-17521
が開催	-17522
なりと	-17523
は何も	-17524
やりと	-17525
ッセル	-17526
ループ	-17527
信じる	-17528
国から	-17529
地上に	-17530
怒りを	-17531
期間の	-17532
沿いに	-17533
電話を	-17534
▁やはり	-17535
がとても	-17536
こちらへ	-17537
それ以上	-17538
よくない	-17539
ブラウザ	-17540
詳しくは	-17541
調査では	-17542
できますが	-17543
と思われた	-17544
れるように	-17545
アレルギー	-17546
メーカーの	-17547
重要な役割	-17548
といっしょに	-17549
ると思います	-17550
と考えています	-17551
Sh	-17552
▁e	-17553
▁→	-17554
が来	-17555
なー	-17556
は長	-17557
利便	-17558
卑怯	-17559
参詣	-17560
吊り	-17561
地面	-17562
専務	-17563
己の	-17564
慈悲	-17565
撃破	-17566
範疇	-17567
而も	-17568
貴様	-17569
風土	-17570
▁修理	-17571
ござい	-17572
ストリ	-17573
借りる	-17574
参加し	-17575
時代を	-17576
枠組み	-17577
町から	-17578
にはその	-17579
一時的に	-17580
柔らかい	-17581
現われた	-17582
しつつある	-17583
じゃないの	-17584
クーデター	-17585
思い切って	-17586
飛び出して	-17587
を引き起こす	-17588
オークション	-17589
お酒	-17590
を刺	-17591
タニ	-17592
デレ	-17593
ヶ原	-17594
作目	-17595
侮辱	-17596
信徒	-17597
八月	-17598
刹那	-17599
南極	-17600
印鑑	-17601
厚く	-17602
尾根	-17603
州に	-17604
帯び	-17605
次官	-17606
浄土	-17607
睨み	-17608
角に	-17609
質量	-17610
起業	-17611
▁Th	-17612
。14	-17613
あとに	-17614
ころは	-17615
にない	-17616
の時間	-17617
めった	-17618
カーは	-17619
コンタ	-17620
フュー	-17621
ヴィア	-17622
世間に	-17623
勝手な	-17624
北部の	-17625
危ない	-17626
本気で	-17627
極端な	-17628
気持で	-17629
生物学	-17630
端から	-17631
話では	-17632
間では	-17633
きたので	-17634
の人たち	-17635
をついた	-17636
を決めて	-17637
シーンを	-17638
研究所の	-17639
結婚した	-17640
設立した	-17641
くなったり	-17642
なかったら	-17643
など様々な	-17644
フィラデル	-17645
ことではない	-17646
バラエティ番組	-17647
LP	-17648
の眼	-17649
よき	-17650
ウエ	-17651
一括	-17652
吹く	-17653
武力	-17654
白な	-17655
砲塔	-17656
額が	-17657
騒が	-17658
に乗る	-17659
の大型	-17660
めぐり	-17661
保育園	-17662
向うの	-17663
大西洋	-17664
建物が	-17665
戦争で	-17666
条件に	-17667
精神の	-17668
▁どんな	-17669
まつわる	-17670
わけにも	-17671
国会議員	-17672
忘れない	-17673
最近では	-17674
解らない	-17675
言っても	-17676
ってくれる	-17677
もしれない	-17678
アマチュア	-17679
エントリー	-17680
ティッシュ	-17681
続けていた	-17682
Amazon	-17683
を必要とする	-17684
しておりますが	-17685
▁”	-17686
の	-17687
、	-17688
に	-17689
い	-17690
た	-17691
と	-17692
て	-17693
し	-17694
る	-17695
は	-17696
で	-17697
な	-17698
。	-17699
を	-17700
が	-17701
▁	-17702
か	-17703
っ	-17704
れ	-17705
も	-17706
ら	-17707
ー	-17708
う	-17709
す	-17710
ま	-17711
り	-17712
こ	-17713
あ	-17714
ン	-17715
く	-17716
さ	-17717
そ	-17718
ん	-17719
1	-17720
よ	-17721
だ	-17722
き	-17723
ス	-17724
」	-17725
「	-17726
つ	-17727
ル	-17728
け	-17729
ト	-17730
年	-17731
0	-17732
お	-17733
イ	-17734
2	-17735
人	-17736
や	-17737
リ	-17738
.	-17739
・	-17740
め	-17741
え	-17742
ど	-17743
ア	-17744
(	-17745
)	-17746
ラ	-17747
ッ	-17748
わ	-17749
日	-17750
一	-17751
ク	-17752
ち	-17753
大	-17754
せ	-17755
出	-17756
9	-17757
シ	-17758
ド	-17759
タ	-17760
ば	-17761
中	-17762
行	-17763
み	-17764
フ	-17765
レ	-17766
見	-17767
時	-17768
ろ	-17769
3	-17770
ロ	-17771
本	-17772
上	-17773
分	-17774
事	-17775
へ	-17776
月	-17777
じ	-17778
カ	-17779
ジ	-17780
生	-17781
方	-17782
プ	-17783
自	-17784
5	-17785
的	-17786
間	-17787
マ	-17788
4	-17789
思	-17790
者	-17791
テ	-17792
学	-17793
合	-17794
後	-17795
子	-17796
国	-17797
ず	-17798
コ	-17799
手	-17800
8	-17801
ィ	-17802
ム	-17803
バ	-17804
グ	-17805
会	-17806
e	-17807
メ	-17808
場	-17809
6	-17810
用	-17811
地	-17812
デ	-17813
作	-17814
前	-17815
入	-17816
7	-17817
来	-17818
チ	-17819
言	-17820
気	-17821
オ	-17822
a	-17823
部	-17824
サ	-17825
私	-17826
ウ	-17827
同	-17828
ニ	-17829
家	-17830
キ	-17831
発	-17832
ブ	-17833
立	-17834
ね	-17835
ャ	-17836
ュ	-17837
o	-17838
物	-17839
代	-17840
i	-17841
下	-17842
エ	-17843
ナ	-17844
当	-17845
ほ	-17846
長	-17847
『	-17848
』	-17849
―	-17850
女	-17851
高	-17852
定	-17853
パ	-17854
目	-17855
動	-17856
体	-17857
び	-17858
何	-17859
げ	-17860
性	-17861
ビ	-17862
通	-17863
実	-17864
対	-17865
ご	-17866
べ	-17867
今	-17868
名	-17869
戦	-17870
彼	-17871
度	-17872
成	-17873
n	-17874
業	-17875
多	-17876
々	-17877
内	-17878
r	-17879
理	-17880
ミ	-17881
所	-17882
ズ	-17883
小	-17884
二	-17885
知	-17886
持	-17887
t	-17888
取	-17889
心	-17890
最	-17891
主	-17892
現	-17893
ダ	-17894
全	-17895
力	-17896
ゃ	-17897
開	-17898
明	-17899
ェ	-17900
新	-17901
A	-17902
世	-17903
意	-17904
山	-17905
以	-17906
関	-17907
三	-17908
社	-17909
ひ	-17910
化	-17911
ふ	-17912
ョ	-17913
市	-17914
外	-17915
ょ	-17916
書	-17917
道	-17918
金	-17919
法	-17920
S	-17921
ツ	-17922
感	-17923
ハ	-17924
む	-17925
使	-17926
セ	-17927
文	-17928
不	-17929
初	-17930
要	-17931
s	-17932
無	-17933
数	-17934
話	-17935
様	-17936
身	-17937
ベ	-17938
面	-17939
機	-17940
第	-17941
考	-17942
ネ	-17943
m	-17944
モ	-17945
C	-17946
回	-17947
品	-17948
-	-17949
表	-17950
田	-17951
結	-17952
教	-17953
l	-17954
在	-17955
車	-17956
記	-17957
東	-17958
先	-17959
画	-17960
少	-17961
ガ	-17962
変	-17963
相	-17964
ポ	-17965
水	-17966
設	-17967
期	-17968
受	-17969
活	-17970
向	-17971
語	-17972
十	-17973
ざ	-17974
連	-17975
軍	-17976
平	-17977
ケ	-17978
近	-17979
引	-17980
能	-17981
ピ	-17982
公	-17983
T	-17984
ソ	-17985
I	-17986
!	-17987
選	-17988
屋	-17989
ワ	-17990
加	-17991
点	-17992
民	-17993
次	-17994
ノ	-17995
正	-17996
付	-17997
得	-17998
ボ	-17999
置	-18000
神	-18001
続	-18002
川	-18003
口	-18004
特	-18005
員	-18006
ぐ	-18007
経	-18008
重	-18009
ぶ	-18010
P	-18011
政	-18012
問	-18013
利	-18014
原	-18015
M	-18016
ァ	-18017
有	-18018
海	-18019
形	-18020
安	-18021
位	-18022
決	-18023
野	-18024
味	-18025
D	-18026
解	-18027
楽	-18028
和	-18029
組	-18030
切	-18031
c	-18032
際	-18033
E	-18034
ぎ	-18035
校	-18036
果	-18037
制	-18038
信	-18039
u	-18040
聞	-18041
ヴ	-18042
?	-18043
男	-18044
食	-18045
元	-18046
可	-18047
進	-18048
指	-18049
治	-18050
議	-18051
他	-18052
音	-18053
N	-18054
O	-18055
番	-18056
着	-18057
直	-18058
保	-18059
等	-18060
流	-18061
務	-18062
売	-18063
題	-18064
線	-18065
強	-18066
界	-18067
云	-18068
空	-18069
電	-18070
R	-18071
勝	-18072
,	-18073
B	-18074
ギ	-18075
状	-18076
送	-18077
ぬ	-18078
始	-18079
ゐ	-18080
天	-18081
色	-18082
別	-18083
然	-18084
込	-18085
御	-18086
常	-18087
情	-18088
ペ	-18089
運	-18090
集	-18091
"	-18092
良	-18093
島	-18094
d	-18095
調	-18096
白	-18097
式	-18098
共	-18099
h	-18100
居	-18101
死	-18102
:	-18103
木	-18104
町	-18105
仕	-18106
郎	-18107
必	-18108
京	-18109
起	-18110
北	-18111
約	-18112
放	-18113
説	-18114
ォ	-18115
演	-18116
ヤ	-18117
ザ	-18118
料	-18119
達	-18120
真	-18121
義	-18122
報	-18123
親	-18124
美	-18125
終	-18126
足	-18127
風	-18128
県	-18129
計	-18130
産	-18131
F	-18132
ゆ	-18133
存	-18134
ホ	-18135
士	-18136
違	-18137
過	-18138
好	-18139
頭	-18140
論	-18141
づ	-18142
判	-18143
ゴ	-18144
西	-18145
工	-18146
支	-18147
村	-18148
葉	-18149
任	-18150
太	-18151
L	-18152
確	-18153
都	-18154
配	-18155
ゲ	-18156
種	-18157
五	-18158
交	-18159
命	-18160
落	-18161
半	-18162
認	-18163
王	-18164
参	-18165
格	-18166
呼	-18167
門	-18168
伝	-18169
役	-18170
店	-18171
基	-18172
光	-18173
曲	-18174
馬	-18175
広	-18176
術	-18177
帰	-18178
古	-18179
由	-18180
団	-18181
石	-18182
反	-18183
権	-18184
声	-18185
顔	-18186
ぞ	-18187
朝	-18188
供	-18189
母	-18190
悪	-18191
土	-18192
建	-18193
G	-18194
想	-18195
p	-18196
質	-18197
ヒ	-18198
万	-18199
応	-18200
映	-18201
両	-18202
愛	-18203
台	-18204
夫	-18205
父	-18206
兵	-18207
造	-18208
示	-18209
側	-18210
夜	-18211
育	-18212
区	-18213
g	-18214
再	-18215
南	-18216
残	-18217
四	-18218
買	-18219
態	-18220
張	-18221
転	-18222
構	-18223
改	-18224
限	-18225
院	-18226
優	-18227
止	-18228
路	-18229
州	-18230
例	-18231
君	-18232
観	-18233
住	-18234
価	-18235
予	-18236
/	-18237
打	-18238
録	-18239
収	-18240
笑	-18241
容	-18242
返	-18243
素	-18244
影	-18245
備	-18246
歌	-18247
隊	-18248
H	-18249
移	-18250
試	-18251
件	-18252
k	-18253
乗	-18254
域	-18255
師	-18256
号	-18257
歩	-18258
係	-18259
製	-18260
型	-18261
助	-18262
戸	-18263
八	-18264
科	-18265
程	-18266
登	-18267
ぼ	-18268
頃	-18269
撃	-18270
僕	-18271
読	-18272
類	-18273
職	-18274
早	-18275
y	-18276
難	-18277
装	-18278
降	-18279
投	-18280
験	-18281
若	-18282
処	-18283
断	-18284
異	-18285
非	-18286
研	-18287
官	-18288
族	-18289
単	-18290
離	-18291
K	-18292
氏	-18293
病	-18294
提	-18295
円	-18296
待	-18297
統	-18298
念	-18299
増	-18300
客	-18301
商	-18302
与	-18303
評	-18304
失	-18305
V	-18306
系	-18307
U	-18308
越	-18309
害	-18310
究	-18311
効	-18312
量	-18313
細	-18314
ユ	-18315
花	-18316
告	-18317
飛	-18318
施	-18319
W	-18320
営	-18321
段	-18322
退	-18323
吉	-18324
府	-18325
殺	-18326
資	-18327
比	-18328
急	-18329
局	-18330
鉄	-18331
座	-18332
追	-18333
個	-18334
更	-18335
武	-18336
室	-18337
識	-18338
史	-18339
ヘ	-18340
総	-18341
述	-18342
根	-18343
消	-18344
深	-18345
ヨ	-18346
眼	-18347
b	-18348
接	-18349
城	-18350
技	-18351
条	-18352
象	-18353
w	-18354
船	-18355
字	-18356
火	-18357
求	-18358
規	-18359
周	-18360
独	-18361
申	-18362
衛	-18363
器	-18364
派	-18365
各	-18366
松	-18367
領	-18368
井	-18369
覚	-18370
去	-18371
館	-18372
含	-18373
賞	-18374
駅	-18375
働	-18376
争	-18377
党	-18378
苦	-18379
護	-18380
ぜ	-18381
勢	-18382
費	-18383
査	-18384
図	-18385
検	-18386
視	-18387
友	-18388
介	-18389
及	-18390
称	-18391
割	-18392
突	-18393
走	-18394
米	-18395
歳	-18396
青	-18397
率	-18398
f	-18399
属	-18400
望	-18401
注	-18402
響	-18403
載	-18404
守	-18405
管	-18406
編	-18407
済	-18408
宮	-18409
完	-18410
差	-18411
案	-18412
紙	-18413
球	-18414
導	-18415
挙	-18416
婚	-18417
像	-18418
寄	-18419
首	-18420
千	-18421
藤	-18422
低	-18423
修	-18424
左	-18425
姿	-18426
遠	-18427
防	-18428
満	-18429
頼	-18430
黒	-18431
ゼ	-18432
医	-18433
渡	-18434
証	-18435
極	-18436
園	-18437
誰	-18438
右	-18439
六	-18440
展	-18441
我	-18442
従	-18443
J	-18444
赤	-18445
境	-18446
福	-18447
復	-18448
階	-18449
振	-18450
速	-18451
負	-18452
昭	-18453
末	-18454
将	-18455
準	-18456
協	-18457
横	-18458
版	-18459
値	-18460
江	-18461
毛	-18462
積	-18463
英	-18464
破	-18465
～	-18466
写	-18467
故	-18468
岡	-18469
谷	-18470
ゝ	-18471
担	-18472
材	-18473
寺	-18474
百	-18475
余	-18476
為	-18477
七	-18478
紀	-18479
談	-18480
敗	-18481
橋	-18482
策	-18483
攻	-18484
歴	-18485
減	-18486
囲	-18487
ぱ	-18488
芸	-18489
描	-18490
興	-18491
般	-18492
薬	-18493
毎	-18494
継	-18495
絶	-18496
専	-18497
監	-18498
星	-18499
抜	-18500
洋	-18501
老	-18502
旅	-18503
企	-18504
精	-18505
除	-18506
息	-18507
労	-18508
答	-18509
具	-18510
級	-18511
娘	-18512
草	-18513
帯	-18514
陸	-18515
v	-18516
察	-18517
整	-18518
辺	-18519
補	-18520
換	-18521
^	-18522
習	-18523
艦	-18524
探	-18525
適	-18526
普	-18527
委	-18528
因	-18529
掛	-18530
之	-18531
皇	-18532
療	-18533
熱	-18534
九	-18535
河	-18536
令	-18537
列	-18538
端	-18539
許	-18540
久	-18541
未	-18542
角	-18543
春	-18544
其	-18545
衆	-18546
%	-18547
督	-18548
銀	-18549
司	-18550
此	-18551
恐	-18552
警	-18553
舞	-18554
願	-18555
給	-18556
背	-18557
源	-18558
環	-18559
戻	-18560
額	-18561
佐	-18562
催	-18563
波	-18564
雑	-18565
血	-18566
服	-18567
板	-18568
就	-18569
蔵	-18570
留	-18571
宅	-18572
援	-18573
沢	-18574
了	-18575
兄	-18576
景	-18577
遊	-18578
博	-18579
諸	-18580
郡	-18581
帝	-18582
軽	-18583
省	-18584
幸	-18585
印	-18586
妻	-18587
貴	-18588
清	-18589
温	-18590
並	-18591
劇	-18592
算	-18593
推	-18594
農	-18595
途	-18596
似	-18597
X	-18598
酒	-18599
飲	-18600
築	-18601
又	-18602
被	-18603
休	-18604
販	-18605
押	-18606
標	-18607
織	-18608
模	-18609
節	-18610
短	-18611
創	-18612
雨	-18613
弟	-18614
逃	-18615
況	-18616
林	-18617
遺	-18618
阪	-18619
採	-18620
散	-18621
席	-18622
寝	-18623
養	-18624
皆	-18625
財	-18626
如	-18627
圧	-18628
巻	-18629
密	-18630
翌	-18631
競	-18632
暗	-18633
困	-18634
敵	-18635
宿	-18636
茶	-18637
伊	-18638
富	-18639
肉	-18640
街	-18641
弁	-18642
緒	-18643
崎	-18644
宗	-18645
庭	-18646
Y	-18647
倒	-18648
激	-18649
至	-18650
徳	-18651
俺	-18652
訳	-18653
疑	-18654
尾	-18655
旧	-18656
著	-18657
”	-18658
険	-18659
週	-18660
障	-18661
乱	-18662
授	-18663
片	-18664
航	-18665
絵	-18666
壁	-18667
訪	-18668
秋	-18669
布	-18670
折	-18671
静	-18672
婦	-18673
奥	-18674
候	-18675
丸	-18676
裏	-18677
替	-18678
功	-18679
児	-18680
便	-18681
敷	-18682
浮	-18683
承	-18684
植	-18685
;	-18686
志	-18687
罪	-18688
善	-18689
拠	-18690
夢	-18691
複	-18692
仲	-18693
裁	-18694
夏	-18695
盛	-18696
雪	-18697
痛	-18698
亡	-18699
徴	-18700
豊	-18701
ヌ	-18702
闘	-18703
聖	-18704
払	-18705
超	-18706
傷	-18707
=	-18708
射	-18709
森	-18710
喜	-18711
健	-18712
枚	-18713
岸	-18714
骨	-18715
冷	-18716
危	-18717
津	-18718
陽	-18719
固	-18720
底	-18721
堂	-18722
層	-18723
港	-18724
〜	-18725
抱	-18726
岩	-18727
弾	-18728
永	-18729
納	-18730
卒	-18731
抗	-18732
縁	-18733
聴	-18734
撮	-18735
幕	-18736
臣	-18737
略	-18738
玉	-18739
恋	-18740
課	-18741
焼	-18742
捕	-18743
欲	-18744
鳥	-18745
驚	-18746
刻	-18747
紹	-18748
誌	-18749
廃	-18750
照	-18751
契	-18752
購	-18753
頂	-18754
症	-18755
測	-18756
易	-18757
跡	-18758
延	-18759
群	-18760
伴	-18761
籍	-18762
隠	-18763
否	-18764
魔	-18765
香	-18766
較	-18767
講	-18768
筋	-18769
〵	-18770
怪	-18771
筆	-18772
奏	-18773
脱	-18774
腹	-18775
扱	-18776
己	-18777
昔	-18778
暮	-18779
來	-18780
逆	-18781
那	-18782
染	-18783
徒	-18784
昨	-18785
依	-18786
迎	-18787
税	-18788
批	-18789
丁	-18790
ゥ	-18791
浜	-18792
秀	-18793
獲	-18794
章	-18795
忘	-18796
甲	-18797
殿	-18798
弱	-18799
薄	-18800
借	-18801
練	-18802
革	-18803
壊	-18804
鮮	-18805
占	-18806
宇	-18807
請	-18808
皮	-18809
胸	-18810
央	-18811
嫌	-18812
討	-18813
&	-18814
里	-18815
髪	-18816
礼	-18817
ヶ	-18818
混	-18819
羽	-18820
順	-18821
幅	-18822
洗	-18823
触	-18824
露	-18825
雄	-18826
勤	-18827
悲	-18828
奴	-18829
〳	-18830
簡	-18831
窓	-18832
房	-18833
伸	-18834
厳	-18835
致	-18836
輸	-18837
曜	-18838
滅	-18839
康	-18840
仏	-18841
責	-18842
盤	-18843
祭	-18844
栄	-18845
華	-18846
妙	-18847
吹	-18848
倉	-18849
ぢ	-18850
鹿	-18851
犯	-18852
欠	-18853
既	-18854
併	-18855
鳴	-18856
幾	-18857
塗	-18858
詩	-18859
耳	-18860
砲	-18861
踏	-18862
互	-18863
坂	-18864
ぽ	-18865
益	-18866
駆	-18867
仮	-18868
輪	-18869
掲	-18870
快	-18871
床	-18872
刑	-18873
拡	-18874
“	-18875
避	-18876
儀	-18877
執	-18878
衣	-18879
則	-18880
災	-18881
届	-18882
躍	-18883
♪	-18884
昇	-18885
閉	-18886
庫	-18887
辞	-18888
柄	-18889
泉	-18890
到	-18891
震	-18892
泣	-18893
遣	-18894
純	-18895
典	-18896
祖	-18897
晩	-18898
律	-18899
x	-18900
績	-18901
停	-18902
充	-18903
貨	-18904
歯	-18905
雲	-18906
秘	-18907
郷	-18908
夕	-18909
ゾ	-18910
訴	-18911
宣	-18912
剤	-18913
隣	-18914
損	-18915
ゅ	-18916
束	-18917
藩	-18918
仰	-18919
傾	-18920
範	-18921
却	-18922
遅	-18923
救	-18924
携	-18925
繰	-18926
詞	-18927
包	-18928
脚	-18929
犬	-18930
締	-18931
爆	-18932
操	-18933
肌	-18934
吸	-18935
揮	-18936
竹	-18937
微	-18938
樹	-18939
禁	-18940
韓	-18941
黄	-18942
池	-18943
賀	-18944
荷	-18945
油	-18946
刊	-18947
酸	-18948
魚	-18949
眠	-18950
惑	-18951
腕	-18952
悩	-18953
暴	-18954
句	-18955
湯	-18956
宝	-18957
忠	-18958
即	-18959
項	-18960
襲	-18961
刺	-18962
ぁ	-18963
晴	-18964
丈	-18965
奪	-18966
齢	-18967
午	-18968
或	-18969
陣	-18970
希	-18971
z	-18972
矢	-18973
廻	-18974
倍	-18975
献	-18976
怒	-18977
舎	-18978
維	-18979
唯	-18980
摘	-18981
奇	-18982
兼	-18983
誘	-18984
刀	-18985
詳	-18986
姉	-18987
慮	-18988
患	-18989
捨	-18990
飯	-18991
往	-18992
審	-18993
荒	-18994
奈	-18995
択	-18996
腰	-18997
幼	-18998
迷	-18999
詰	-19000
霊	-19001
毒	-19002
盟	-19003
湾	-19004
冬	-19005
副	-19006
稿	-19007
謝	-19008
]	-19009
妹	-19010
[	-19011
*	-19012
厚	-19013
>	-19014
黙	-19015
誤	-19016
迫	-19017
】	-19018
旦	-19019
巡	-19020
【	-19021
附	-19022
沿	-19023
慣	-19024
絡	-19025
握	-19026
抑	-19027
怖	-19028
寒	-19029
虫	-19030
_	-19031
貰	-19032
煙	-19033
箱	-19034
免	-19035
濃	-19036
尊	-19037
株	-19038
飾	-19039
燃	-19040
縮	-19041
庁	-19042
覧	-19043
沈	-19044
肩	-19045
距	-19046
宙	-19047
瀬	-19048
札	-19049
針	-19050
砂	-19051
億	-19052
釈	-19053
穴	-19054
孫	-19055
崩	-19056
診	-19057
'	-19058
邦	-19059
浴	-19060
概	-19061
杯	-19062
奉	-19063
幹	-19064
灯	-19065
汚	-19066
Z	-19067
剣	-19068
氣	-19069
招	-19070
恵	-19071
枝	-19072
|	-19073
昼	-19074
騒	-19075
駄	-19076
胞	-19077
伯	-19078
季	-19079
努	-19080
於	-19081
漫	-19082
玄	-19083
巨	-19084
鼻	-19085
是	-19086
均	-19087
○	-19088
麗	-19089
憲	-19090
浦	-19091
勇	-19092
僧	-19093
憶	-19094
票	-19095
泊	-19096
臨	-19097
麻	-19098
沖	-19099
湖	-19100
智	-19101
嬉	-19102
阿	-19103
銭	-19104
眺	-19105
伏	-19106
侵	-19107
唱	-19108
繁	-19109
童	-19110
威	-19111
涙	-19112
干	-19113
浅	-19114
漢	-19115
紅	-19116
懸	-19117
閣	-19118
索	-19119
坊	-19120
趣	-19121
液	-19122
陰	-19123
銃	-19124
呂	-19125
塩	-19126
潜	-19127
看	-19128
才	-19129
脳	-19130
Q	-19131
牛	-19132
珍	-19133
殊	-19134
盗	-19135
騎	-19136
叫	-19137
搭	-19138
鏡	-19139
爵	-19140
排	-19141
熊	-19142
梅	-19143
芝	-19144
緑	-19145
欧	-19146
狭	-19147
狂	-19148
敬	-19149
勉	-19150
猫	-19151
析	-19152
尽	-19153
瞬	-19154
抵	-19155
寸	-19156
貧	-19157
埋	-19158
賛	-19159
臭	-19160
封	-19161
融	-19162
舗	-19163
祝	-19164
葬	-19165
吾	-19166
渉	-19167
縄	-19168
貸	-19169
衝	-19170
仙	-19171
袋	-19172
魅	-19173
疲	-19174
添	-19175
没	-19176
核	-19177
輩	-19178
傍	-19179
削	-19180
貫	-19181
俳	-19182
透	-19183
還	-19184
懐	-19185
軒	-19186
柔	-19187
棄	-19188
菜	-19189
杉	-19190
籠	-19191
乾	-19192
墓	-19193
募	-19194
譲	-19195
邪	-19196
遂	-19197
塁	-19198
哲	-19199
仁	-19200
姓	-19201
尋	-19202
揚	-19203
呉	-19204
械	-19205
辛	-19206
慶	-19207
随	-19208
拝	-19209
鬼	-19210
旗	-19211
甘	-19212
嫁	-19213
炭	-19214
牧	-19215
輝	-19216
勧	-19217
訓	-19218
須	-19219
+	-19220
旨	-19221
耐	-19222
頑	-19223
貢	-19224
勘	-19225
逢	-19226
序	-19227
滑	-19228
緊	-19229
釣	-19230
豪	-19231
雇	-19232
顧	-19233
裕	-19234
樣	-19235
屈	-19236
掘	-19237
酔	-19238
塚	-19239
姫	-19240
誕	-19241
柳	-19242
陥	-19243
豆	-19244
龍	-19245
鈴	-19246
棒	-19247
署	-19248
促	-19249
翼	-19250
彦	-19251
柱	-19252
坐	-19253
枠	-19254
筈	-19255
駐	-19256
☆	-19257
桜	-19258
浪	-19259
忍	-19260
捜	-19261
慢	-19262
挑	-19263
綱	-19264
丘	-19265
秒	-19266
魂	-19267
繋	-19268
竜	-19269
徹	-19270
稲	-19271
脈	-19272
踊	-19273
飼	-19274
×	-19275
ゞ	-19276
粉	-19277
尚	-19278
偵	-19279
氷	-19280
該	-19281
冠	-19282
滞	-19283
糸	-19284
悟	-19285
拒	-19286
征	-19287
雷	-19288
塔	-19289
圏	-19290
恥	-19291
寿	-19292
茂	-19293
摩	-19294
券	-19295
鑑	-19296
俗	-19297
ぷ	-19298
偽	-19299
炎	-19300
寧	-19301
訊	-19302
帳	-19303
鶴	-19304
叔	-19305
#	-19306
斎	-19307
汗	-19308
岐	-19309
ぴ	-19310
沼	-19311
脂	-19312
咲	-19313
遇	-19314
撤	-19315
丹	-19316
裂	-19317
託	-19318
賃	-19319
謀	-19320
稼	-19321
膝	-19322
→	-19323
双	-19324
斯	-19325
彩	-19326
李	-19327
貞	-19328
揃	-19329
隆	-19330
〇	-19331
網	-19332
預	-19333
漁	-19334
羅	-19335
緩	-19336
控	-19337
堀	-19338
熟	-19339
侍	-19340
菊	-19341
召	-19342
誠	-19343
獄	-19344
畑	-19345
弥	-19346
寛	-19347
暫	-19348
狙	-19349
償	-19350
叩	-19351
唐	-19352
婆	-19353
軌	-19354
宜	-19355
揺	-19356
縦	-19357
菌	-19358
垣	-19359
亜	-19360
邸	-19361
偶	-19362
恩	-19363
潮	-19364
鎖	-19365
隅	-19366
頻	-19367
渋	-19368
闇	-19369
隔	-19370
礎	-19371
暖	-19372
哀	-19373
掃	-19374
戒	-19375
國	-19376
軸	-19377
乳	-19378
泥	-19379
廷	-19380
烈	-19381
紫	-19382
誇	-19383
覆	-19384
摂	-19385
翻	-19386
履	-19387
凄	-19388
匠	-19389
扉	-19390
殆	-19391
雰	-19392
吐	-19393
溶	-19394
贈	-19395
岳	-19396
架	-19397
脇	-19398
斬	-19399
誉	-19400
j	-19401
硬	-19402
也	-19403
臓	-19404
剛	-19405
忙	-19406
暑	-19407
債	-19408
僚	-19409
處	-19410
畳	-19411
垂	-19412
惜	-19413
劣	-19414
甚	-19415
酷	-19416
這	-19417
帽	-19418
勿	-19419
漏	-19420
磨	-19421
糖	-19422
憎	-19423
堅	-19424
虚	-19425
肥	-19426
斜	-19427
浸	-19428
噂	-19429
舟	-19430
駒	-19431
刷	-19432
寂	-19433
荘	-19434
悔	-19435
卵	-19436
徐	-19437
祈	-19438
涯	-19439
淡	-19440
湿	-19441
燈	-19442
嘘	-19443
靴	-19444
※	-19445
逸	-19446
獣	-19447
鉱	-19448
孝	-19449
鎮	-19450
披	-19451
脅	-19452
綺	-19453
慰	-19454
郵	-19455
壇	-19456
紛	-19457
賢	-19458
罰	-19459
喫	-19460
戯	-19461
箇	-19462
庄	-19463
巧	-19464
浄	-19465
嬢	-19466
堪	-19467
拶	-19468
挨	-19469
菓	-19470
弘	-19471
暇	-19472
舌	-19473
乏	-19474
尺	-19475
灰	-19476
凡	-19477
洞	-19478
冊	-19479
貯	-19480
僅	-19481
拾	-19482
賊	-19483
径	-19484
腐	-19485
俊	-19486
彫	-19487
鎌	-19488
殖	-19489
培	-19490
括	-19491
顕	-19492
亭	-19493
卓	-19494
爺	-19495
廊	-19496
冒	-19497
暦	-19498
蘭	-19499
孔	-19500
妊	-19501
亀	-19502
顏	-19503
敏	-19504
偉	-19505
旬	-19506
粧	-19507
需	-19508
學	-19509
實	-19510
沙	-19511
銅	-19512
`	-19513
紋	-19514
袖	-19515
粒	-19516
焦	-19517
癖	-19518
蛇	-19519
馴	-19520
笠	-19521
孤	-19522
巣	-19523
澤	-19524
愚	-19525
励	-19526
塞	-19527
侯	-19528
曹	-19529
措	-19530
覗	-19531
筒	-19532
遭	-19533
昌	-19534
鋭	-19535
喰	-19536
頬	-19537
衰	-19538
逮	-19539
[...]
